const unsigned char model[] = {
  0x1c, 0x00, 0x00, 0x00, 0x54, 0x46, 0x4c, 0x33, 0x14, 0x00, 0x20, 0x00,
  0x1c, 0x00, 0x18, 0x00, 0x14, 0x00, 0x10, 0x00, 0x0c, 0x00, 0x00, 0x00,
  0x08, 0x00, 0x04, 0x00, 0x14, 0x00, 0x00, 0x00, 0x1c, 0x00, 0x00, 0x00,
  0x98, 0x00, 0x00, 0x00, 0xf0, 0x00, 0x00, 0x00, 0x94, 0x18, 0x00, 0x00,
  0xa4, 0x18, 0x00, 0x00, 0xfc, 0x1d, 0x00, 0x00, 0x03, 0x00, 0x00, 0x00,
  0x01, 0x00, 0x00, 0x00, 0x10, 0x00, 0x00, 0x00, 0x00, 0x00, 0x0a, 0x00,
  0x10, 0x00, 0x0c, 0x00, 0x08, 0x00, 0x04, 0x00, 0x0a, 0x00, 0x00, 0x00,
  0x0c, 0x00, 0x00, 0x00, 0x1c, 0x00, 0x00, 0x00, 0x3c, 0x00, 0x00, 0x00,
  0x0f, 0x00, 0x00, 0x00, 0x73, 0x65, 0x72, 0x76, 0x69, 0x6e, 0x67, 0x5f,
  0x64, 0x65, 0x66, 0x61, 0x75, 0x6c, 0x74, 0x00, 0x01, 0x00, 0x00, 0x00,
  0x04, 0x00, 0x00, 0x00, 0x90, 0xff, 0xff, 0xff, 0x0a, 0x00, 0x00, 0x00,
  0x04, 0x00, 0x00, 0x00, 0x08, 0x00, 0x00, 0x00, 0x6f, 0x75, 0x74, 0x70,
  0x75, 0x74, 0x5f, 0x30, 0x00, 0x00, 0x00, 0x00, 0x01, 0x00, 0x00, 0x00,
  0x04, 0x00, 0x00, 0x00, 0x52, 0xe7, 0xff, 0xff, 0x04, 0x00, 0x00, 0x00,
  0x0f, 0x00, 0x00, 0x00, 0x6b, 0x65, 0x72, 0x61, 0x73, 0x5f, 0x74, 0x65,
  0x6e, 0x73, 0x6f, 0x72, 0x5f, 0x31, 0x39, 0x00, 0x02, 0x00, 0x00, 0x00,
  0x34, 0x00, 0x00, 0x00, 0x04, 0x00, 0x00, 0x00, 0xdc, 0xff, 0xff, 0xff,
  0x0d, 0x00, 0x00, 0x00, 0x04, 0x00, 0x00, 0x00, 0x13, 0x00, 0x00, 0x00,
  0x43, 0x4f, 0x4e, 0x56, 0x45, 0x52, 0x53, 0x49, 0x4f, 0x4e, 0x5f, 0x4d,
  0x45, 0x54, 0x41, 0x44, 0x41, 0x54, 0x41, 0x00, 0x08, 0x00, 0x0c, 0x00,
  0x08, 0x00, 0x04, 0x00, 0x08, 0x00, 0x00, 0x00, 0x0c, 0x00, 0x00, 0x00,
  0x04, 0x00, 0x00, 0x00, 0x13, 0x00, 0x00, 0x00, 0x6d, 0x69, 0x6e, 0x5f,
  0x72, 0x75, 0x6e, 0x74, 0x69, 0x6d, 0x65, 0x5f, 0x76, 0x65, 0x72, 0x73,
  0x69, 0x6f, 0x6e, 0x00, 0x0e, 0x00, 0x00, 0x00, 0xa0, 0x17, 0x00, 0x00,
  0x98, 0x17, 0x00, 0x00, 0x80, 0x17, 0x00, 0x00, 0x60, 0x17, 0x00, 0x00,
  0x48, 0x17, 0x00, 0x00, 0x34, 0x17, 0x00, 0x00, 0x14, 0x17, 0x00, 0x00,
  0xb4, 0x00, 0x00, 0x00, 0xac, 0x00, 0x00, 0x00, 0xa4, 0x00, 0x00, 0x00,
  0x9c, 0x00, 0x00, 0x00, 0x94, 0x00, 0x00, 0x00, 0x74, 0x00, 0x00, 0x00,
  0x04, 0x00, 0x00, 0x00, 0x06, 0xe8, 0xff, 0xff, 0x04, 0x00, 0x00, 0x00,
  0x60, 0x00, 0x00, 0x00, 0x10, 0x00, 0x00, 0x00, 0x00, 0x00, 0x00, 0x00,
  0x08, 0x00, 0x0e, 0x00, 0x08, 0x00, 0x04, 0x00, 0x08, 0x00, 0x00, 0x00,
  0x10, 0x00, 0x00, 0x00, 0x24, 0x00, 0x00, 0x00, 0x00, 0x00, 0x06, 0x00,
  0x08, 0x00, 0x04, 0x00, 0x06, 0x00, 0x00, 0x00, 0x04, 0x00, 0x00, 0x00,
  0x00, 0x00, 0x00, 0x00, 0x0c, 0x00, 0x18, 0x00, 0x14, 0x00, 0x10, 0x00,
  0x0c, 0x00, 0x04, 0x00, 0x0c, 0x00, 0x00, 0x00, 0xd2, 0x9f, 0x33, 0xb0,
  0x89, 0x46, 0x83, 0x2f, 0x02, 0x00, 0x00, 0x00, 0x02, 0x00, 0x00, 0x00,
  0x04, 0x00, 0x00, 0x00, 0x06, 0x00, 0x00, 0x00, 0x32, 0x2e, 0x31, 0x38,
  0x2e, 0x30, 0x00, 0x00, 0x72, 0xe8, 0xff, 0xff, 0x04, 0x00, 0x00, 0x00,
  0x10, 0x00, 0x00, 0x00, 0x31, 0x2e, 0x35, 0x2e, 0x30, 0x00, 0x00, 0x00,
  0x00, 0x00, 0x00, 0x00, 0x00, 0x00, 0x00, 0x00, 0xe8, 0xe3, 0xff, 0xff,
  0xec, 0xe3, 0xff, 0xff, 0xf0, 0xe3, 0xff, 0xff, 0xf4, 0xe3, 0xff, 0xff,
  0x9e, 0xe8, 0xff, 0xff, 0x04, 0x00, 0x00, 0x00, 0x50, 0x16, 0x00, 0x00,
  0x76, 0x2e, 0x8d, 0x3d, 0xcb, 0xca, 0x02, 0xbe, 0xa3, 0x00, 0x02, 0x3e,
  0xc0, 0x62, 0xe6, 0xbd, 0x50, 0x95, 0x86, 0x3d, 0x0c, 0x19, 0x01, 0xbe,
  0x0e, 0x70, 0xf8, 0x3d, 0xc8, 0x0b, 0x9d, 0x3c, 0xba, 0x3d, 0x9e, 0xbd,
  0x80, 0x21, 0x20, 0xbc, 0xc0, 0x15, 0x5d, 0xbd, 0x82, 0xfb, 0xe4, 0x3d,
  0x34, 0x8d, 0x95, 0xbd, 0x7d, 0xf1, 0xbb, 0xbd, 0x1c, 0x33, 0xb7, 0x3d,
  0xec, 0x8c, 0x0f, 0x3d, 0x9a, 0xe6, 0xf6, 0x3d, 0x58, 0x4c, 0x86, 0x3d,
  0x30, 0x51, 0x3d, 0xbd, 0x24, 0xb7, 0xaf, 0x3d, 0xa0, 0x24, 0x2b, 0x3c,
  0xa0, 0x0a, 0x8a, 0x3b, 0xa0, 0x59, 0xc3, 0x3c, 0xc7, 0x7f, 0xd7, 0xbd,
  0x5c, 0x5d, 0x86, 0x3d, 0x96, 0xcc, 0x85, 0xbd, 0x14, 0x26, 0xe6, 0x3d,
  0x80, 0x62, 0x9f, 0x3c, 0x12, 0xea, 0x02, 0xbe, 0x00, 0x59, 0x78, 0xbb,
  0x84, 0xbb, 0xda, 0x3d, 0xab, 0x60, 0xfe, 0xbd, 0x68, 0xa3, 0xd2, 0x3d,
  0x56, 0x4a, 0x83, 0x3d, 0x49, 0xde, 0xe6, 0xbd, 0x96, 0x45, 0xf3, 0x3d,
  0xdf, 0xe0, 0xf4, 0xbd, 0xec, 0x32, 0xea, 0x3d, 0xde, 0xcc, 0xda, 0xbd,
  0xae, 0xda, 0x9c, 0x3d, 0xb0, 0x12, 0xa1, 0xbb, 0x10, 0x59, 0x68, 0x3d,
  0x28, 0x8d, 0x43, 0xbd, 0xb2, 0x95, 0x03, 0xbe, 0x60, 0xbb, 0xd4, 0xbd,
  0x88, 0x07, 0xf2, 0x3c, 0x5a, 0x9b, 0xbb, 0x3d, 0xfe, 0xf6, 0x93, 0x3d,
  0x68, 0xed, 0xa2, 0x3c, 0x36, 0x62, 0x16, 0xbd, 0xb0, 0x7c, 0x32, 0x3d,
  0xe9, 0xa3, 0xf9, 0xbd, 0xcb, 0xf5, 0xb7, 0xbd, 0x38, 0x57, 0xc7, 0x3d,
  0xd0, 0xa7, 0x9c, 0xbc, 0xe8, 0x5e, 0x91, 0x3c, 0xbb, 0xab, 0x02, 0x3e,
  0x51, 0xd4, 0x01, 0x3e, 0x60, 0xf2, 0x86, 0x3c, 0xc4, 0x31, 0xa5, 0x3d,
  0xa0, 0x7a, 0xdb, 0x3b, 0x40, 0x14, 0x50, 0x3d, 0x45, 0xed, 0xc4, 0xbd,
  0x9a, 0x22, 0xa6, 0x3d, 0x70, 0x36, 0xfc, 0xbd, 0xee, 0x7e, 0x71, 0xbd,
  0xfe, 0xa4, 0x00, 0xbe, 0x88, 0xed, 0xda, 0xbd, 0x84, 0x74, 0x1c, 0x3d,
  0x02, 0xb6, 0xa2, 0x3d, 0x40, 0x16, 0x1e, 0x3b, 0xf0, 0x44, 0x23, 0x3c,
  0xc0, 0xdf, 0x3a, 0x3b, 0xa0, 0xd5, 0x8d, 0x3d, 0xbb, 0x45, 0xf8, 0xbd,
  0x80, 0xbd, 0xe2, 0x3c, 0x8c, 0x3e, 0xe0, 0x3d, 0xa4, 0x83, 0x20, 0xbd,
  0x8c, 0xf2, 0xa9, 0xbc, 0x38, 0x72, 0xb9, 0xbd, 0x09, 0x38, 0x85, 0xbd,
  0x30, 0xb2, 0xda, 0x3c, 0xa0, 0x2a, 0x9c, 0x3c, 0x28, 0xf5, 0x10, 0xbd,
  0xaa, 0xa6, 0xf5, 0x3d, 0x60, 0x7a, 0x8b, 0x3d, 0x8a, 0x86, 0xd1, 0x3d,
  0xba, 0x88, 0x06, 0xbd, 0xb0, 0x2e, 0x99, 0xbd, 0x98, 0xdf, 0x22, 0xbc,
  0x50, 0x78, 0xac, 0x3d, 0x26, 0x69, 0x29, 0xbd, 0x46, 0xc8, 0x9b, 0xbd,
  0x7c, 0x4f, 0x0f, 0x3d, 0x48, 0x91, 0x19, 0xbd, 0xb0, 0xd5, 0xb8, 0xbb,
  0xc4, 0xbe, 0x5d, 0x3d, 0x2a, 0x1a, 0xc0, 0xbd, 0x20, 0xf9, 0x9e, 0x3d,
  0x24, 0x35, 0x6e, 0xbd, 0x0b, 0xf3, 0xa8, 0xbd, 0xe4, 0x64, 0xa8, 0xbc,
  0xca, 0xc1, 0x33, 0xbd, 0x8d, 0x0b, 0x01, 0x3e, 0x1c, 0xaf, 0x0c, 0x3d,
  0x40, 0x5b, 0xcf, 0x3b, 0x22, 0xc4, 0xad, 0x3d, 0xc0, 0xdc, 0x38, 0x3d,
  0xbc, 0x61, 0x74, 0x3d, 0x90, 0x9f, 0x8e, 0x3d, 0xa4, 0x01, 0xd2, 0xbd,
  0x4b, 0x95, 0xa6, 0xbd, 0x04, 0x5d, 0x50, 0x3d, 0x32, 0x7c, 0xa8, 0x3d,
  0x78, 0xf5, 0xc7, 0xbd, 0x16, 0x3c, 0xd1, 0xbd, 0x60, 0x73, 0xc8, 0x3d,
  0x12, 0x89, 0xff, 0x3d, 0x5a, 0xe1, 0x0b, 0xbd, 0xc8, 0x0a, 0xdc, 0xbc,
  0x2a, 0xab, 0xed, 0x3d, 0x02, 0x02, 0x48, 0xbd, 0xb9, 0xf1, 0xe6, 0xbd,
  0x6e, 0x83, 0xe2, 0x3d, 0x00, 0xf8, 0x39, 0x39, 0xd0, 0xdd, 0x7f, 0xbc,
  0x83, 0x98, 0x00, 0xbe, 0xd0, 0x8b, 0x58, 0x3c, 0x76, 0x00, 0xe2, 0xbd,
  0xe0, 0xb4, 0x98, 0x3c, 0x61, 0xdf, 0x86, 0xbd, 0x28, 0xbc, 0xf8, 0x3c,
  0xa4, 0xf9, 0xaa, 0xbd, 0x58, 0x17, 0xec, 0x3c, 0x34, 0xef, 0xb3, 0xbd,
  0x10, 0x16, 0x32, 0xbd, 0x02, 0x34, 0x8d, 0xbd, 0x94, 0x8c, 0xf4, 0xbc,
  0x18, 0x81, 0xb8, 0xbd, 0xaa, 0xd3, 0x9c, 0x3d, 0x94, 0x00, 0x90, 0xbd,
  0x06, 0x68, 0x00, 0xbe, 0xae, 0xf1, 0x00, 0xbd, 0xc0, 0x0f, 0xf3, 0xbc,
  0x50, 0x66, 0xec, 0xbc, 0x70, 0x63, 0xd7, 0x3c, 0x99, 0x63, 0xd8, 0xbd,
  0x74, 0x43, 0xce, 0x3d, 0x50, 0xff, 0x65, 0x3d, 0x68, 0x83, 0xa6, 0xbd,
  0xd3, 0xb1, 0xf6, 0xbd, 0xf7, 0x60, 0xb6, 0xbd, 0x26, 0x19, 0xc8, 0xbd,
  0x58, 0x00, 0x75, 0x3d, 0x93, 0x0d, 0x96, 0xbd, 0xba, 0x70, 0x99, 0xbd,
  0xe6, 0x6a, 0xcd, 0x3d, 0xd0, 0x22, 0xcf, 0xbb, 0xc8, 0x26, 0x6e, 0xbc,
  0x8c, 0x1e, 0x54, 0x3d, 0xb6, 0x90, 0xfc, 0x3d, 0xe2, 0xd3, 0xcb, 0xbd,
  0x5c, 0xa0, 0x01, 0x3d, 0x1d, 0x0e, 0xe2, 0xbd, 0x8c, 0x04, 0xca, 0x3d,
  0x4a, 0x92, 0x8f, 0xbd, 0x5c, 0x0d, 0xeb, 0x3d, 0xc8, 0xb4, 0xcb, 0x3d,
  0xde, 0xf2, 0x51, 0xbd, 0x55, 0x59, 0xe9, 0xbd, 0xee, 0xe7, 0xe4, 0xbd,
  0x40, 0xf0, 0x52, 0xbb, 0xd0, 0x48, 0x87, 0xbc, 0xc0, 0x03, 0xe1, 0x3b,
  0xc0, 0x52, 0xeb, 0xbd, 0xee, 0x66, 0xae, 0xbd, 0x23, 0xdc, 0xb3, 0xbd,
  0x18, 0xe0, 0x77, 0xbc, 0x69, 0x66, 0x84, 0xbd, 0x2c, 0x7f, 0xdd, 0xbd,
  0xa8, 0xdb, 0xab, 0x3d, 0x00, 0xef, 0x3a, 0x3a, 0x34, 0x08, 0x90, 0xbd,
  0xa8, 0x5c, 0x0a, 0xbd, 0x54, 0x48, 0x25, 0x3d, 0x3a, 0x0b, 0xc5, 0xbd,
  0x6b, 0xea, 0x02, 0x3e, 0x0c, 0x40, 0x95, 0xbc, 0x40, 0xd1, 0x04, 0xbc,
  0x50, 0x6a, 0x00, 0x3d, 0xc0, 0x5e, 0xc5, 0x3b, 0x50, 0xe5, 0x6e, 0xbc,
  0x62, 0x68, 0x1a, 0xbd, 0x2c, 0x4f, 0xc1, 0x3d, 0x6e, 0x89, 0xd7, 0x3d,
  0x2c, 0xc0, 0xba, 0xbd, 0x1a, 0x1c, 0x90, 0x3d, 0xa0, 0x97, 0x89, 0x3b,
  0x58, 0x15, 0xb3, 0xbd, 0xcc, 0x25, 0xd8, 0xbd, 0xb2, 0xcf, 0xc7, 0xbd,
  0x80, 0xa8, 0x92, 0x3a, 0x70, 0xea, 0x89, 0x3c, 0xde, 0xde, 0xa0, 0x3d,
  0xd3, 0x87, 0xb3, 0xbd, 0xb4, 0xe9, 0xdf, 0xbd, 0xb8, 0x20, 0x60, 0x3d,
  0x40, 0xfe, 0xb6, 0xbd, 0x80, 0xec, 0x3d, 0x3d, 0x35, 0x57, 0xfe, 0xbd,
  0x1c, 0x5d, 0x2c, 0xbd, 0xd6, 0x23, 0xc6, 0x3d, 0xd4, 0xbe, 0x33, 0xbd,
  0x10, 0xd4, 0x35, 0x3c, 0xb8, 0xc5, 0x95, 0x3c, 0x80, 0xa6, 0x18, 0x3c,
  0xb4, 0x42, 0x22, 0x3d, 0x25, 0x23, 0xfb, 0xbd, 0xd0, 0x2f, 0xa7, 0xbb,
  0xe0, 0x44, 0xbb, 0x3b, 0x1c, 0x2e, 0xb7, 0xbd, 0x4c, 0x84, 0xdc, 0x3d,
  0x3c, 0xf7, 0xb3, 0xbc, 0x00, 0xeb, 0x9b, 0x3c, 0x92, 0x33, 0xdb, 0xbd,
  0x7c, 0xe5, 0xd5, 0x3d, 0x20, 0x1c, 0xe3, 0x3c, 0xa0, 0x3a, 0xb7, 0xbc,
  0x20, 0xf7, 0xf9, 0x3c, 0x44, 0x4e, 0x8f, 0xbc, 0x00, 0x13, 0xbc, 0x3a,
  0x3c, 0xe6, 0x40, 0x3d, 0xd8, 0xeb, 0x98, 0x3d, 0xa6, 0xdf, 0x27, 0xbd,
  0xac, 0xaa, 0xa0, 0xbc, 0x6e, 0xbc, 0x6b, 0xbd, 0xe6, 0x0f, 0xcd, 0xbd,
  0x00, 0x62, 0x1a, 0xbc, 0x30, 0x87, 0x73, 0xbd, 0x08, 0xe3, 0x2d, 0xbd,
  0xfa, 0x4a, 0xea, 0x3d, 0xa0, 0x43, 0x4d, 0xbc, 0x08, 0x67, 0xea, 0x3d,
  0x34, 0xd7, 0x3f, 0xbd, 0x6a, 0xf8, 0x52, 0xbd, 0xbb, 0x0d, 0xc2, 0xbd,
  0x98, 0xca, 0xd4, 0x3c, 0xb7, 0x6e, 0xfd, 0xbd, 0xb4, 0x82, 0x6b, 0x3d,
  0x24, 0x1f, 0xda, 0xbc, 0xc0, 0xe7, 0x99, 0xbd, 0x0a, 0xd8, 0x00, 0xbe,
  0x12, 0xba, 0xaa, 0xbd, 0x4c, 0xb7, 0x9a, 0xbd, 0x68, 0xcc, 0x03, 0xbe,
  0x86, 0x74, 0xbd, 0xbd, 0xc8, 0x04, 0x4a, 0xbd, 0xb4, 0xca, 0x71, 0x3d,
  0x10, 0x92, 0x79, 0x3c, 0xc0, 0xef, 0x6b, 0xbb, 0xb2, 0x39, 0x9e, 0xbd,
  0x14, 0x9b, 0x42, 0x3d, 0x3e, 0xb3, 0x9c, 0xbd, 0xcd, 0x51, 0xdf, 0xbd,
  0x00, 0x0c, 0x7a, 0xbc, 0xc4, 0x8d, 0xc6, 0xbd, 0x7b, 0xde, 0xa4, 0xbd,
  0x51, 0x0c, 0x01, 0xbe, 0xc0, 0x4d, 0xbf, 0x3b, 0xac, 0x48, 0x97, 0xbd,
  0x20, 0x4e, 0x77, 0x3d, 0x68, 0xf3, 0x28, 0xbc, 0x96, 0x29, 0x2f, 0xbd,
  0xd4, 0x4d, 0x02, 0xbd, 0x80, 0xc1, 0xdd, 0xbd, 0x44, 0x50, 0x8b, 0xbd,
  0xc0, 0x9e, 0x34, 0xbb, 0x22, 0x03, 0x82, 0xbd, 0x68, 0xc3, 0xc9, 0x3d,
  0x98, 0xf4, 0xbe, 0xbd, 0xce, 0x60, 0xf3, 0x3d, 0xa5, 0x13, 0xd7, 0xbd,
  0xe0, 0xc9, 0xd2, 0x3c, 0xfc, 0x55, 0x03, 0x3d, 0xc9, 0x6d, 0xfe, 0xbd,
  0xdc, 0x43, 0x4a, 0x3d, 0xa0, 0x9a, 0xb0, 0xbc, 0xac, 0x5f, 0xa5, 0x3d,
  0x80, 0x83, 0x48, 0x3c, 0x40, 0x3c, 0x79, 0x3d, 0x60, 0x02, 0x2b, 0x3d,
  0xd2, 0x9f, 0x55, 0xbd, 0xa0, 0x21, 0x29, 0x3d, 0xbb, 0xa3, 0x00, 0xbe,
  0x9a, 0x69, 0xce, 0x3d, 0xc4, 0x96, 0xf5, 0x3d, 0x84, 0x41, 0x81, 0x3d,
  0x90, 0xa7, 0x4c, 0x3d, 0x8e, 0xbd, 0x87, 0x3d, 0xf6, 0xdc, 0x9f, 0x3d,
  0x6c, 0x50, 0x4f, 0x3d, 0x44, 0xcf, 0x23, 0x3d, 0x00, 0xdc, 0x01, 0xb9,
  0xa0, 0x57, 0x2d, 0x3d, 0xb6, 0x3e, 0x0a, 0xbd, 0x58, 0xaa, 0xe5, 0xbd,
  0x54, 0x62, 0x0b, 0xbd, 0xb8, 0x5c, 0xba, 0x3c, 0xac, 0xf3, 0x49, 0xbd,
  0xc0, 0x63, 0x12, 0xbb, 0xf5, 0x8f, 0xf0, 0xbd, 0xae, 0xba, 0xe4, 0x3d,
  0x7c, 0xed, 0x88, 0x3d, 0x30, 0xf0, 0x48, 0x3c, 0x00, 0x5f, 0xe4, 0x3d,
  0x00, 0xc0, 0x6d, 0xbb, 0xf4, 0xf0, 0x35, 0xbd, 0x0c, 0xed, 0x03, 0x3d,
  0x97, 0xef, 0xa3, 0xbd, 0x2c, 0x68, 0x57, 0xbd, 0xf2, 0x12, 0xab, 0x3d,
  0xf2, 0xa1, 0x3b, 0xbd, 0xf8, 0x33, 0xec, 0x3c, 0xb0, 0x0e, 0x9b, 0x3d,
  0xa9, 0x7e, 0xbd, 0xbd, 0xe0, 0x80, 0x6d, 0x3d, 0xd0, 0xd7, 0x9d, 0x3d,
  0xdf, 0xe2, 0x02, 0x3e, 0xea, 0xef, 0xe9, 0xbd, 0xcd, 0x60, 0xf7, 0xbd,
  0xbb, 0x37, 0x02, 0x3e, 0xe4, 0xd3, 0xb0, 0x3d, 0xce, 0x9f, 0xc8, 0xbd,
  0xe4, 0xf9, 0xfb, 0xbc, 0x9e, 0x57, 0xe7, 0x3d, 0x30, 0xbe, 0x05, 0x3d,
  0x67, 0x7c, 0x8b, 0xbd, 0xd0, 0x60, 0xf2, 0xbd, 0x30, 0xdd, 0x2a, 0x3c,
  0xf1, 0xee, 0xec, 0xbd, 0xac, 0x04, 0x78, 0xbd, 0x52, 0x34, 0xff, 0xbd,
  0x13, 0x1d, 0x91, 0xbd, 0x38, 0x3f, 0x70, 0xbc, 0x78, 0xcf, 0x68, 0x3d,
  0xfc, 0x01, 0x7d, 0x3d, 0xda, 0x71, 0xe2, 0x3d, 0xc0, 0x8f, 0xcc, 0x3b,
  0xf4, 0x76, 0xf5, 0x3d, 0x1e, 0x25, 0x44, 0xbd, 0x80, 0x0e, 0xfc, 0xba,
  0x62, 0x79, 0x81, 0xbd, 0x54, 0xf9, 0x6e, 0xbd, 0x17, 0x4a, 0x00, 0x3e,
  0x00, 0x27, 0xfd, 0x3a, 0x64, 0x0e, 0x42, 0xbd, 0x58, 0x48, 0x18, 0x3d,
  0xcb, 0x3b, 0x9c, 0x3d, 0xc6, 0x9e, 0x24, 0xbe, 0x1e, 0x14, 0x3e, 0xbb,
  0x7e, 0xf3, 0xcd, 0x3d, 0x8a, 0x90, 0xc0, 0xbc, 0x26, 0x24, 0x15, 0x3c,
  0x1b, 0x43, 0x2c, 0xbd, 0x54, 0xa7, 0x48, 0xbd, 0x72, 0x33, 0x2d, 0x3b,
  0x98, 0x14, 0xaf, 0x3d, 0xe2, 0xe8, 0x3e, 0x3d, 0xe2, 0x6e, 0x0a, 0xbe,
  0xb1, 0x30, 0x22, 0xbd, 0xfa, 0x70, 0x79, 0x3d, 0xee, 0xa5, 0xc0, 0xbd,
  0xb8, 0x5d, 0x78, 0xbc, 0x28, 0x43, 0x6e, 0x3d, 0x56, 0x20, 0x42, 0xbe,
  0x5a, 0x8a, 0x76, 0x3d, 0x99, 0x5d, 0x4e, 0x3d, 0xa8, 0xc0, 0x20, 0xbe,
  0xe0, 0xd8, 0xc0, 0xbd, 0x9c, 0x71, 0x1f, 0xbe, 0x25, 0x7d, 0x3c, 0xbe,
  0x27, 0x58, 0x42, 0x3c, 0x54, 0xd7, 0xa5, 0x3c, 0x2a, 0x66, 0x92, 0xba,
  0x09, 0x57, 0xa0, 0xbd, 0xb6, 0x0f, 0xdb, 0xbd, 0x19, 0x80, 0x06, 0xbe,
  0xf5, 0x72, 0x51, 0xbd, 0x4d, 0xb3, 0x11, 0x3d, 0xf6, 0x29, 0x80, 0xbd,
  0x08, 0xc8, 0x82, 0xbd, 0xf8, 0x7b, 0x66, 0x3d, 0x5a, 0xd9, 0xe0, 0xbd,
  0xf6, 0x70, 0xa2, 0x3b, 0x2e, 0x14, 0xb3, 0xba, 0x97, 0x3f, 0x1f, 0xbd,
  0x2f, 0x21, 0xa0, 0x3d, 0xec, 0x43, 0x82, 0xbd, 0x30, 0x05, 0x71, 0x3d,
  0xaf, 0xce, 0x48, 0x3d, 0xb6, 0x91, 0x9f, 0xbd, 0x6d, 0x0e, 0xb4, 0xbd,
  0xeb, 0x3c, 0x2f, 0xbd, 0x29, 0xad, 0x0d, 0x3d, 0xe9, 0x8c, 0xc7, 0xbd,
  0x0b, 0xb9, 0x97, 0xbd, 0x1b, 0x17, 0x0d, 0xbe, 0xfd, 0xde, 0xf1, 0xbd,
  0x2b, 0x27, 0xb4, 0xbd, 0x97, 0x93, 0x95, 0xbd, 0x4e, 0x46, 0x8e, 0x3d,
  0x19, 0xf0, 0xdb, 0x3b, 0x63, 0x6d, 0x32, 0xbe, 0x3e, 0x0a, 0x1b, 0xbe,
  0x4e, 0x02, 0xc4, 0x3d, 0xb4, 0x6e, 0x16, 0xbe, 0xb2, 0x10, 0x19, 0xbe,
  0xf2, 0x5b, 0x84, 0x3d, 0xdd, 0x52, 0x2c, 0xbe, 0x8e, 0x67, 0xfa, 0xbd,
  0x44, 0x82, 0x08, 0x3c, 0xa9, 0xc4, 0x1d, 0xbd, 0x3b, 0xd1, 0x6c, 0xbd,
  0xf4, 0x88, 0x27, 0xbd, 0xf7, 0x76, 0x73, 0xbd, 0x51, 0xba, 0x18, 0xbe,
  0x41, 0xea, 0x06, 0x3d, 0x85, 0xa8, 0xe3, 0xbd, 0x4b, 0x93, 0x95, 0xbb,
  0xa4, 0xeb, 0x9f, 0x3d, 0x70, 0xf4, 0xdb, 0xbd, 0x09, 0xf0, 0x00, 0x3d,
  0xaf, 0x7b, 0x23, 0x3c, 0xbc, 0x72, 0xb8, 0xbd, 0x4f, 0x8b, 0x1d, 0x3c,
  0xdc, 0xd5, 0x4e, 0xbd, 0x89, 0xc3, 0x4e, 0x3d, 0xe7, 0xf4, 0x43, 0x3d,
  0xed, 0x07, 0x3a, 0xbc, 0x82, 0xc6, 0x5e, 0xbd, 0x8f, 0xcb, 0x8d, 0x3d,
  0xf1, 0xbb, 0x98, 0xbc, 0x7c, 0xef, 0xba, 0xbd, 0xa4, 0x88, 0xbf, 0xbc,
  0xfe, 0x54, 0xea, 0x3d, 0xfe, 0xf9, 0x23, 0xbe, 0x3d, 0x24, 0x7b, 0xbc,
  0xa3, 0x1c, 0x7c, 0xbd, 0x97, 0x72, 0xc8, 0xbd, 0x1f, 0x2f, 0xac, 0xbd,
  0xbb, 0xc5, 0x0d, 0x3e, 0xed, 0xab, 0x1f, 0xbc, 0x38, 0x1f, 0x10, 0xbe,
  0x9b, 0x1e, 0x9f, 0x3c, 0x6c, 0x8a, 0xf4, 0xbd, 0x76, 0x31, 0xb2, 0x3d,
  0x50, 0xbc, 0x69, 0xbc, 0xe5, 0xf2, 0x11, 0xbe, 0x48, 0x3a, 0x39, 0x3d,
  0xe3, 0xd9, 0x96, 0x3d, 0x28, 0x68, 0x1f, 0xbe, 0x06, 0x83, 0xd4, 0xbb,
  0x29, 0xfd, 0xad, 0x3c, 0x3d, 0x68, 0x34, 0xbe, 0x51, 0xe3, 0x17, 0x3d,
  0xb0, 0xca, 0xa4, 0xbc, 0x45, 0xd4, 0xc6, 0xbd, 0xce, 0x25, 0xba, 0xbc,
  0xa7, 0x4f, 0x82, 0xbd, 0x71, 0xda, 0x88, 0x3d, 0x97, 0x7f, 0x9b, 0xbd,
  0x4c, 0xdd, 0xc5, 0x3d, 0x5f, 0x01, 0x04, 0xbe, 0x9c, 0x72, 0x65, 0x3b,
  0x65, 0xbc, 0xbd, 0x3d, 0x1e, 0xef, 0x22, 0xbd, 0xcd, 0x99, 0x00, 0x3d,
  0x3b, 0x43, 0x97, 0x3d, 0x6a, 0x28, 0x8a, 0x3c, 0xc8, 0x40, 0xa0, 0x3d,
  0x08, 0x2b, 0x01, 0x3e, 0x6c, 0xac, 0xa5, 0xbd, 0x9d, 0x7f, 0xf3, 0x3c,
  0x8d, 0x0e, 0x39, 0xbd, 0x5a, 0xce, 0x8b, 0x3d, 0xe7, 0x87, 0x27, 0xbd,
  0x6e, 0xad, 0x21, 0xbc, 0x03, 0x20, 0xd8, 0xbd, 0xec, 0xf1, 0xde, 0xbd,
  0x14, 0x0b, 0x83, 0xbd, 0xdb, 0x2c, 0x2c, 0xbd, 0x97, 0xbf, 0xec, 0xbd,
  0x59, 0x8b, 0x9e, 0x3c, 0x7a, 0x2e, 0x03, 0xbe, 0x7a, 0xd5, 0xf7, 0xbc,
  0xee, 0x01, 0x8c, 0x3d, 0xca, 0x11, 0xf7, 0x3d, 0x85, 0x56, 0x90, 0x3d,
  0x7d, 0x2a, 0xf7, 0xbd, 0x1b, 0xa5, 0xe4, 0x3b, 0x7f, 0x3a, 0xb3, 0x3c,
  0xb3, 0x04, 0xab, 0x3d, 0xb8, 0x8f, 0x8c, 0x3d, 0x06, 0xa7, 0x60, 0x3d,
  0xe2, 0x38, 0x9b, 0xba, 0xdb, 0x20, 0x10, 0xbd, 0x64, 0x6f, 0x30, 0x3d,
  0x64, 0x06, 0xed, 0xbc, 0xee, 0x4f, 0x1d, 0x3d, 0xfc, 0x25, 0xe6, 0x3d,
  0xcb, 0xba, 0xc4, 0x3d, 0xef, 0xa6, 0xff, 0x3d, 0x1d, 0xcb, 0x02, 0x3e,
  0xa0, 0xf8, 0x8b, 0xbd, 0x15, 0x36, 0x5e, 0xbd, 0x6c, 0xe3, 0x93, 0x3d,
  0xad, 0x97, 0xde, 0x3d, 0x64, 0x8d, 0xb1, 0x3d, 0x2a, 0x9a, 0x36, 0x3d,
  0x7a, 0xee, 0xb0, 0x3d, 0x9e, 0xe0, 0xf4, 0x3c, 0xe9, 0x0f, 0x3a, 0xbd,
  0x79, 0x7c, 0x29, 0x3d, 0x3a, 0x6b, 0xf1, 0x3c, 0x8e, 0x7d, 0xe3, 0xbc,
  0x3b, 0xe0, 0x8e, 0x3d, 0x93, 0xa3, 0x35, 0x3d, 0xc5, 0x1e, 0xab, 0xbd,
  0x09, 0x1c, 0xf5, 0xbc, 0xb7, 0x8c, 0xb5, 0x3d, 0xbc, 0xdc, 0xa8, 0x3d,
  0x39, 0xd1, 0x02, 0xbd, 0x9d, 0xf8, 0x3b, 0xbd, 0xb1, 0x64, 0xdc, 0xbd,
  0x11, 0x56, 0xe8, 0x3d, 0x3b, 0xb7, 0x98, 0x3d, 0xd7, 0xf4, 0xa2, 0x3d,
  0xd7, 0xdc, 0x8f, 0xbd, 0xda, 0xdf, 0xec, 0x3c, 0xa1, 0xf2, 0xef, 0x3d,
  0x5b, 0xa2, 0xc2, 0x3d, 0xfd, 0x10, 0x09, 0x3b, 0xf8, 0x0f, 0xc2, 0x3d,
  0x72, 0x11, 0xa4, 0x3d, 0x27, 0x12, 0x4d, 0x3c, 0x4c, 0x09, 0x58, 0xbd,
  0x1a, 0xcc, 0x13, 0xbd, 0xb3, 0x60, 0x9c, 0xbd, 0x63, 0xfc, 0x96, 0x3d,
  0x1f, 0x0c, 0x6f, 0x3d, 0x2f, 0xbc, 0xc4, 0xbd, 0x98, 0x49, 0x6e, 0x3d,
  0x40, 0x5f, 0x64, 0x3c, 0xd3, 0x44, 0x94, 0xbc, 0x79, 0xff, 0x91, 0xbd,
  0x50, 0x48, 0x82, 0xbd, 0x49, 0x85, 0x02, 0x3e, 0x1d, 0x51, 0xd0, 0xbd,
  0xe8, 0xb3, 0xc1, 0x3a, 0x2b, 0xee, 0x25, 0x3d, 0xc5, 0x0b, 0xb3, 0xbd,
  0x81, 0xce, 0xf0, 0xbc, 0xec, 0x0c, 0xa4, 0x3d, 0x1b, 0x07, 0x13, 0x3e,
  0x5e, 0x84, 0xe3, 0x3d, 0x51, 0x93, 0x1b, 0x3d, 0xb0, 0xf8, 0xdb, 0x3d,
  0x66, 0xaa, 0x37, 0x3c, 0x51, 0xe2, 0x78, 0xbd, 0x54, 0xd0, 0x02, 0x3e,
  0x8f, 0xf1, 0xb7, 0x3c, 0xb9, 0xda, 0xe7, 0xbd, 0x72, 0x05, 0xab, 0xbd,
  0xc2, 0xfd, 0x77, 0x3d, 0xed, 0x68, 0xeb, 0x3d, 0x29, 0x71, 0x07, 0xbd,
  0x29, 0x8d, 0x8c, 0x3d, 0x28, 0x2b, 0xcf, 0x3d, 0xa6, 0x6a, 0xfc, 0xbb,
  0xd0, 0x6a, 0xbf, 0x3d, 0x74, 0x14, 0xa1, 0x3d, 0xe8, 0x3e, 0x70, 0xbd,
  0xa8, 0xbf, 0xbc, 0x3d, 0x82, 0xd1, 0xe1, 0xbd, 0x78, 0xcd, 0x82, 0x3d,
  0xdd, 0x38, 0x8b, 0x3c, 0x14, 0x1c, 0x5b, 0x3c, 0x75, 0x86, 0xbe, 0x3c,
  0x18, 0x23, 0xf1, 0x3b, 0x48, 0x67, 0x02, 0x3e, 0xfd, 0x65, 0x6b, 0x3d,
  0x93, 0xce, 0xae, 0xbd, 0x1d, 0x2e, 0x3f, 0x3d, 0x31, 0x49, 0xe0, 0xbc,
  0x21, 0xbd, 0x46, 0x3d, 0x72, 0x9f, 0x12, 0xbc, 0x8c, 0x53, 0xc3, 0xbd,
  0x6b, 0xf2, 0xb3, 0x3d, 0x0e, 0xf2, 0x1b, 0x3e, 0x9b, 0xc7, 0x94, 0x3d,
  0x7c, 0x2d, 0xba, 0x3d, 0x5d, 0xc7, 0xbe, 0x3d, 0x14, 0xfa, 0xc0, 0x3c,
  0xfb, 0xde, 0xbb, 0xbb, 0x26, 0x11, 0x97, 0x3d, 0xbd, 0xf2, 0x12, 0x3e,
  0x7e, 0x96, 0x19, 0xbd, 0x60, 0x78, 0x97, 0xbd, 0x24, 0xb0, 0x8f, 0x3d,
  0x55, 0x1d, 0x91, 0xbd, 0x2e, 0x9d, 0xe6, 0x3c, 0xa9, 0xfb, 0x7e, 0xbd,
  0x6a, 0xe5, 0x6a, 0x3d, 0xaa, 0x3e, 0x1c, 0x3e, 0xe8, 0x71, 0xe8, 0x3c,
  0xce, 0xad, 0x0b, 0x3e, 0x2c, 0x37, 0x8b, 0xbd, 0x06, 0x57, 0x7b, 0x3d,
  0x2f, 0xcf, 0x11, 0x3e, 0x46, 0xc4, 0x3e, 0xbc, 0x20, 0x69, 0xb3, 0xbc,
  0x5f, 0xe6, 0x3c, 0xbd, 0x67, 0x4a, 0xdd, 0x3d, 0x4d, 0x9e, 0x61, 0xbc,
  0x2a, 0x26, 0x99, 0x3d, 0xd2, 0xb8, 0x16, 0x3e, 0xbc, 0x73, 0x12, 0x3e,
  0xd8, 0x20, 0x2e, 0x3c, 0xee, 0x26, 0x86, 0x3d, 0xf7, 0xd7, 0x02, 0x3e,
  0x8f, 0x52, 0x8e, 0x3d, 0x1b, 0xee, 0xcc, 0x3d, 0xf9, 0xba, 0xf8, 0x3d,
  0x29, 0x62, 0x3a, 0xbd, 0xa7, 0x02, 0x28, 0xbd, 0x53, 0xd7, 0xc9, 0x3d,
  0xcd, 0x00, 0xb8, 0xbd, 0xb6, 0xf5, 0x09, 0x3e, 0x24, 0x23, 0xa4, 0x3b,
  0x66, 0xbc, 0xb1, 0xbd, 0x5c, 0xab, 0xce, 0x3d, 0xa6, 0x0a, 0x07, 0x3e,
  0xa2, 0xdf, 0xff, 0x3d, 0x42, 0x9d, 0x09, 0x3e, 0x33, 0x6b, 0x0e, 0x3d,
  0x5b, 0xae, 0xc9, 0x3d, 0xea, 0x6d, 0xdf, 0xbc, 0x03, 0xd1, 0x92, 0xbd,
  0x8f, 0xcb, 0x6d, 0xbd, 0x52, 0xcf, 0x9b, 0xbd, 0x1c, 0xa9, 0xac, 0x39,
  0x3f, 0xb6, 0x03, 0xbd, 0x51, 0xbd, 0x92, 0x3d, 0x69, 0xf0, 0xd9, 0x3c,
  0x27, 0x8f, 0xb5, 0x3c, 0xa7, 0xc8, 0x13, 0x3e, 0xf5, 0x30, 0xb1, 0xbd,
  0x01, 0x00, 0x0f, 0xbd, 0x75, 0x38, 0xe4, 0xbc, 0xb7, 0x89, 0xe0, 0x3d,
  0x1a, 0xa6, 0x49, 0x3d, 0xf2, 0xe5, 0xbd, 0xbd, 0x12, 0x20, 0xc8, 0x3d,
  0x21, 0xf7, 0x09, 0x3c, 0xa5, 0xc3, 0xbb, 0x3c, 0xfb, 0x46, 0x9b, 0x3c,
  0x9e, 0x1d, 0x59, 0x3d, 0xcc, 0x16, 0x85, 0xbd, 0x89, 0x00, 0x9e, 0xbd,
  0x12, 0xa4, 0xb3, 0x3c, 0x7f, 0xe6, 0xd1, 0x3c, 0x54, 0x13, 0x9f, 0xbd,
  0xe4, 0xcf, 0x23, 0x3d, 0x59, 0x30, 0x16, 0x3d, 0xeb, 0x79, 0x5e, 0xbb,
  0x0a, 0x7f, 0xfe, 0xbd, 0xe5, 0x75, 0xec, 0x3c, 0x1d, 0xa2, 0xa8, 0x3d,
  0x61, 0x79, 0x9f, 0x3a, 0x56, 0xe4, 0xb9, 0xbd, 0x59, 0x44, 0x19, 0x3d,
  0x60, 0x9a, 0x48, 0xbc, 0x0b, 0x30, 0x31, 0xbd, 0x65, 0xac, 0x48, 0xbd,
  0x6b, 0x01, 0x58, 0xbd, 0x88, 0x89, 0xea, 0xbd, 0xdd, 0xf5, 0x3c, 0x3d,
  0xe4, 0x74, 0x55, 0xbc, 0xf3, 0x44, 0xd8, 0x3d, 0x0a, 0x69, 0x70, 0xbd,
  0xfa, 0x42, 0x50, 0x3c, 0xc3, 0x9e, 0x9b, 0x3d, 0x8d, 0x63, 0x12, 0xbd,
  0xe0, 0x8d, 0xd0, 0x3c, 0xc1, 0x25, 0xde, 0x3d, 0x6f, 0xec, 0xf3, 0xbd,
  0x64, 0x9c, 0xfc, 0x3d, 0x82, 0x27, 0xcf, 0xbd, 0xc5, 0x32, 0x1c, 0x3d,
  0x72, 0x6f, 0xe5, 0x3d, 0x52, 0x9d, 0xad, 0xbd, 0xf0, 0x7e, 0x19, 0x3d,
  0x5a, 0x59, 0x65, 0xbd, 0x7f, 0x13, 0x3a, 0xbd, 0x39, 0xfa, 0x0d, 0x3d,
  0xe2, 0x73, 0x9d, 0xbd, 0x9a, 0xbb, 0xb3, 0x3b, 0x7b, 0xcd, 0xd7, 0x3c,
  0x46, 0x16, 0x57, 0xbd, 0x80, 0xc5, 0x23, 0x3d, 0xdf, 0x68, 0xec, 0xbd,
  0x7f, 0xfc, 0xa3, 0xbd, 0x12, 0xdf, 0x88, 0x3d, 0xd0, 0xaa, 0x2e, 0x3d,
  0x30, 0x95, 0xd3, 0x3d, 0x19, 0x4e, 0xda, 0x3d, 0x52, 0xc4, 0xb5, 0xbd,
  0x4d, 0x70, 0x11, 0xbd, 0xc2, 0x6a, 0xec, 0xbb, 0x5c, 0xb6, 0x01, 0xbe,
  0x6d, 0x6d, 0x1c, 0xbc, 0x4c, 0xac, 0x9b, 0xbd, 0xa0, 0x75, 0xb5, 0x3d,
  0xeb, 0xd0, 0x5b, 0xbd, 0x65, 0x1d, 0x21, 0xbc, 0x8e, 0x65, 0xeb, 0x3c,
  0xc2, 0x36, 0xc4, 0xbd, 0x88, 0x98, 0xa9, 0x3d, 0x71, 0x81, 0x25, 0x3c,
  0xe8, 0x50, 0x92, 0xbd, 0x86, 0x44, 0xcd, 0xbd, 0x09, 0x5f, 0x06, 0xbe,
  0xa3, 0xb2, 0x86, 0x3c, 0x75, 0x4f, 0xd5, 0x3d, 0x31, 0x54, 0xd4, 0x3d,
  0x4a, 0xb4, 0x7a, 0x3c, 0xf4, 0x1a, 0x08, 0x3d, 0xe0, 0x77, 0x49, 0xbd,
  0xc3, 0x09, 0xad, 0xbd, 0x5c, 0xb8, 0x38, 0x3d, 0x6f, 0x96, 0xfc, 0xbd,
  0x1e, 0x8f, 0xb7, 0x3b, 0x89, 0xc8, 0xe2, 0x3d, 0x68, 0x3d, 0xd8, 0x3b,
  0xe6, 0x67, 0xb3, 0x3d, 0xf7, 0xc6, 0xa0, 0xbd, 0x69, 0xd3, 0xe5, 0xbd,
  0x2d, 0x8c, 0xc7, 0x3d, 0xb4, 0x59, 0xa2, 0x3d, 0x9f, 0xe3, 0xe5, 0x3d,
  0x80, 0x16, 0xf1, 0xbc, 0x7c, 0x25, 0x57, 0xbc, 0xa3, 0xdd, 0xab, 0xbd,
  0x86, 0xcb, 0xe5, 0x3c, 0xc9, 0xf7, 0xf1, 0x3d, 0x97, 0x7b, 0xc6, 0x3d,
  0xc8, 0x43, 0xc4, 0x3a, 0x36, 0x44, 0xd0, 0xbd, 0xfd, 0xfa, 0xf0, 0x3d,
  0x56, 0x94, 0x38, 0xbd, 0x06, 0x41, 0x00, 0x3d, 0x68, 0x58, 0x7d, 0xba,
  0x60, 0x49, 0x04, 0xbe, 0xa7, 0xf5, 0xe6, 0x3c, 0x0b, 0x3e, 0x78, 0x3d,
  0xdc, 0x55, 0x93, 0x3c, 0xba, 0x5d, 0x34, 0xbd, 0xbf, 0x97, 0xfc, 0xbd,
  0xf0, 0x83, 0xc0, 0xbd, 0x0a, 0x80, 0xbe, 0xbd, 0x07, 0x49, 0x02, 0xbc,
  0x5e, 0x5c, 0x02, 0xbe, 0x0f, 0x37, 0x2c, 0xbd, 0xda, 0x1d, 0x98, 0xbd,
  0x10, 0x8b, 0x8c, 0xbb, 0x60, 0xe1, 0xa8, 0x3d, 0xcb, 0x4f, 0xa4, 0xbd,
  0xce, 0xd3, 0xed, 0xbd, 0x8f, 0x25, 0x83, 0x3d, 0xb2, 0x21, 0x40, 0x3d,
  0x3c, 0xa5, 0xd2, 0x3c, 0xd0, 0x8a, 0x2c, 0xbd, 0xe7, 0xb4, 0x9f, 0xbd,
  0x11, 0x29, 0xa2, 0x3d, 0x98, 0x50, 0xb3, 0x3d, 0x9a, 0x18, 0x80, 0xbc,
  0xea, 0x12, 0xf5, 0xbb, 0x64, 0x35, 0x55, 0x3d, 0x03, 0x1b, 0x54, 0xbd,
  0xbb, 0x70, 0x77, 0x3c, 0xcf, 0x87, 0x16, 0x3d, 0x74, 0x33, 0x61, 0x3a,
  0xca, 0x19, 0x82, 0x3c, 0xa2, 0xb6, 0x7c, 0xbd, 0x90, 0xab, 0x03, 0xbe,
  0x77, 0x38, 0x16, 0x3d, 0x82, 0xc6, 0x9d, 0x3c, 0x23, 0x78, 0x5a, 0xbd,
  0x0b, 0x2a, 0xfb, 0x3d, 0xb6, 0xae, 0x9a, 0x3b, 0xa9, 0xfd, 0x36, 0x3b,
  0xa0, 0x55, 0x05, 0xbe, 0x4a, 0x17, 0x3b, 0x3d, 0x56, 0x5e, 0xb6, 0x3d,
  0x7f, 0x32, 0xaf, 0x3c, 0xf1, 0xa6, 0x92, 0xbd, 0xab, 0x5d, 0x0a, 0xbc,
  0x81, 0xd1, 0xaf, 0xbd, 0x23, 0xa6, 0x4e, 0xbd, 0x3a, 0x00, 0xe0, 0xbd,
  0x3b, 0x9b, 0xb1, 0x3d, 0x40, 0x86, 0x96, 0x3d, 0x5f, 0x2e, 0xab, 0x3d,
  0x51, 0x49, 0x9e, 0xbd, 0xce, 0xf8, 0x11, 0x3d, 0x39, 0xe8, 0x06, 0x3d,
  0x94, 0x29, 0x8f, 0xbb, 0x45, 0xc2, 0xa1, 0xbd, 0x57, 0x7a, 0x23, 0x3d,
  0xbc, 0x98, 0x87, 0x3d, 0xa9, 0xf2, 0xd3, 0x3d, 0x2a, 0xc5, 0x80, 0xbc,
  0x8c, 0x00, 0x01, 0x3d, 0xad, 0x4d, 0xe9, 0xbd, 0xb4, 0xbb, 0x18, 0xbd,
  0x4b, 0xda, 0x96, 0x3d, 0x3e, 0xb3, 0x9a, 0x3d, 0x17, 0xde, 0xf3, 0x3d,
  0x58, 0xb6, 0xee, 0xbd, 0x48, 0xb1, 0xb2, 0xbd, 0x1e, 0x73, 0xcb, 0xbd,
  0x9f, 0x71, 0x70, 0x3c, 0x92, 0x39, 0xcb, 0x3d, 0x4f, 0x66, 0x04, 0xbe,
  0xcf, 0xde, 0x9c, 0x3d, 0xd8, 0xf4, 0xc4, 0x3d, 0x00, 0x05, 0xcb, 0xbb,
  0x38, 0xd7, 0x41, 0xbd, 0x5d, 0x51, 0xcc, 0x3d, 0x27, 0x91, 0xad, 0xbd,
  0xd5, 0x77, 0x12, 0xbd, 0x04, 0x06, 0xd2, 0xbd, 0x03, 0x74, 0x2c, 0xbc,
  0x26, 0xd0, 0x8f, 0xbd, 0x6b, 0x4c, 0x1c, 0xbc, 0x16, 0xc9, 0xf1, 0xbd,
  0x66, 0xf6, 0xb4, 0xbd, 0xe6, 0x60, 0x2e, 0xbd, 0x52, 0x19, 0xd2, 0x3d,
  0x0d, 0x2e, 0x99, 0x3d, 0xcb, 0xfa, 0xbc, 0xbc, 0x33, 0x7b, 0xdb, 0x3d,
  0x1f, 0xe3, 0x77, 0x3c, 0xf1, 0x18, 0x65, 0xbc, 0xce, 0xae, 0x49, 0x3d,
  0x0a, 0x69, 0xa8, 0x3d, 0xac, 0xb0, 0x04, 0xbe, 0xbf, 0x40, 0xd4, 0xbc,
  0x7b, 0xb9, 0xc2, 0xbc, 0x96, 0x0e, 0x2c, 0x3b, 0x9b, 0xe8, 0x84, 0xbd,
  0xd5, 0xb7, 0xcd, 0xbc, 0xec, 0x06, 0xe5, 0x3c, 0x68, 0x5b, 0xa0, 0xbd,
  0xd0, 0x80, 0xcd, 0x3d, 0x87, 0xd0, 0x0a, 0x3d, 0xb1, 0xdb, 0x2c, 0x3b,
  0xf1, 0x8f, 0x00, 0x3e, 0x11, 0xe2, 0xc0, 0xbc, 0x5c, 0x95, 0x24, 0x3d,
  0xca, 0xe8, 0x99, 0xbb, 0xdb, 0xa2, 0x35, 0xbd, 0x34, 0xfc, 0xac, 0xbd,
  0x0e, 0xa4, 0xf2, 0x3c, 0xe0, 0x41, 0x72, 0xbc, 0x6b, 0x29, 0xd7, 0xbd,
  0xba, 0x1c, 0xab, 0x3c, 0xee, 0xa2, 0xdd, 0xbd, 0x17, 0x4c, 0xb2, 0xbd,
  0xd8, 0xd7, 0x90, 0x3d, 0x9c, 0x75, 0xce, 0x3d, 0x77, 0x2b, 0x8c, 0xbd,
  0x34, 0x9e, 0x71, 0x3d, 0xd5, 0xa0, 0xd8, 0x3d, 0xeb, 0xdd, 0x89, 0x3d,
  0x31, 0x1b, 0x86, 0xbd, 0x72, 0x04, 0x6f, 0xbd, 0x96, 0x76, 0xc2, 0xbd,
  0x20, 0x90, 0xe0, 0xb8, 0x0f, 0xf2, 0xe2, 0xbc, 0x4c, 0x87, 0xf1, 0x3d,
  0x18, 0xed, 0xa1, 0x3d, 0x2a, 0x78, 0x8f, 0x3b, 0x52, 0x98, 0x9e, 0xbc,
  0xaf, 0x9a, 0x19, 0x3c, 0xf8, 0x66, 0x47, 0x3d, 0x99, 0x53, 0x80, 0x3d,
  0xd6, 0x5a, 0x90, 0x3d, 0xc2, 0xe8, 0x92, 0x3b, 0xea, 0x26, 0x22, 0xbd,
  0x47, 0xd2, 0x85, 0xbd, 0x9d, 0xcd, 0x79, 0xbd, 0xd8, 0x2c, 0x5a, 0x3d,
  0x8e, 0x89, 0x52, 0x3d, 0x5b, 0x9e, 0xef, 0x3d, 0xec, 0x97, 0x76, 0x3d,
  0xa0, 0x8a, 0x89, 0xbd, 0xf5, 0xb6, 0x8a, 0xbd, 0x87, 0x0b, 0xa9, 0x3d,
  0xe3, 0x26, 0xe9, 0xbd, 0xe6, 0x33, 0x05, 0xbe, 0x4f, 0x46, 0x68, 0xbd,
  0x00, 0x38, 0x94, 0xb7, 0xbb, 0xba, 0xe1, 0x3d, 0xc3, 0x6b, 0xaa, 0x3d,
  0xf2, 0x0e, 0xe3, 0x3d, 0x18, 0x37, 0x4c, 0xbd, 0xec, 0x5e, 0x38, 0xbd,
  0x69, 0xb8, 0xd2, 0x3d, 0x78, 0x4d, 0x54, 0xbc, 0x5e, 0x88, 0x82, 0xbd,
  0xc0, 0x60, 0x46, 0x3d, 0x2f, 0x6f, 0x04, 0xbd, 0xe1, 0xac, 0x8e, 0xbd,
  0xa3, 0x6d, 0x8a, 0xbd, 0xa3, 0x4e, 0xd1, 0xbd, 0x06, 0x72, 0x16, 0xbd,
  0x26, 0xfe, 0xa7, 0x3d, 0x53, 0x5c, 0xe8, 0xbc, 0x3f, 0xe4, 0xad, 0x3d,
  0x94, 0xab, 0xdf, 0xbd, 0x01, 0xb8, 0x59, 0xbc, 0x84, 0x18, 0x33, 0xbd,
  0x2a, 0x39, 0x84, 0x3d, 0xfa, 0x93, 0x8f, 0x3d, 0x3b, 0x97, 0x93, 0x3d,
  0x44, 0x7e, 0x00, 0x3e, 0x9e, 0x58, 0xfe, 0x3d, 0x5f, 0x18, 0xbd, 0xbd,
  0x3f, 0x6f, 0xa1, 0xbd, 0xd8, 0xf3, 0xab, 0xbd, 0xbb, 0x86, 0xbe, 0x3c,
  0xeb, 0x68, 0xa2, 0xbd, 0xda, 0x98, 0xc6, 0xbc, 0x78, 0xe2, 0xe0, 0x3d,
  0x58, 0x60, 0xef, 0x3d, 0x4e, 0x6e, 0xb2, 0x3d, 0xd2, 0xa3, 0xbc, 0x3d,
  0xfd, 0xfa, 0x65, 0xbd, 0xc0, 0x90, 0xf5, 0x3c, 0x03, 0x58, 0xe6, 0xbd,
  0x69, 0x1c, 0x73, 0xbc, 0xfb, 0x79, 0x14, 0x3c, 0xf0, 0x36, 0x93, 0x3d,
  0xc2, 0xdc, 0x58, 0x3d, 0x49, 0x08, 0x96, 0xbd, 0xea, 0x60, 0x66, 0xbd,
  0xd4, 0x45, 0x97, 0x3d, 0x14, 0xd8, 0xc3, 0x3d, 0x6e, 0x5b, 0x8f, 0xbc,
  0x4e, 0x70, 0xf3, 0xbd, 0x43, 0x66, 0x95, 0x3c, 0x7d, 0xfb, 0x48, 0xbd,
  0x58, 0xa3, 0xf1, 0xbd, 0x7f, 0x0b, 0x56, 0xbd, 0xbd, 0xd3, 0xc2, 0xbc,
  0x98, 0x05, 0xad, 0xbc, 0x82, 0x6a, 0xbd, 0xbc, 0xa7, 0x17, 0x4c, 0xbd,
  0xf8, 0x5f, 0xd9, 0xbd, 0x0e, 0xfd, 0xac, 0xbd, 0xc2, 0x70, 0x01, 0xbd,
  0x9c, 0x8d, 0xf5, 0xbc, 0x00, 0x96, 0xc0, 0xbd, 0x22, 0xca, 0xa0, 0x3c,
  0x26, 0xc9, 0xec, 0x3d, 0xfb, 0x15, 0xd5, 0xbd, 0x57, 0x07, 0x7a, 0xbd,
  0x73, 0xf8, 0x6b, 0xbc, 0x63, 0x05, 0x58, 0xbd, 0x46, 0xc3, 0xfd, 0x3c,
  0xeb, 0x87, 0x93, 0xbd, 0x6b, 0x29, 0xf1, 0x3d, 0x97, 0x38, 0xb9, 0xbd,
  0xe8, 0x3e, 0x9c, 0xbd, 0xf2, 0x77, 0x83, 0xbb, 0x57, 0x0f, 0x9c, 0x3d,
  0x7a, 0x77, 0x7d, 0x3d, 0xb6, 0x57, 0xd2, 0xbd, 0x8b, 0xb5, 0x33, 0xbd,
  0x38, 0xbe, 0x87, 0x3c, 0xcb, 0x5d, 0xbf, 0x3d, 0x56, 0x47, 0x36, 0xbd,
  0x65, 0x19, 0xec, 0xbd, 0x43, 0xdf, 0xdb, 0x3c, 0xca, 0xbf, 0x10, 0x3d,
  0xc6, 0x4e, 0xb3, 0xbd, 0xf8, 0x8b, 0xe0, 0xbc, 0x36, 0xcf, 0xf2, 0xbd,
  0x13, 0xe5, 0xb9, 0x3d, 0x05, 0x67, 0x9a, 0xbc, 0x86, 0x5f, 0xae, 0x3c,
  0x2e, 0xd6, 0xaf, 0x3d, 0xbc, 0x33, 0x60, 0xbd, 0xcf, 0x10, 0x1e, 0xbd,
  0x57, 0x96, 0x6e, 0xbd, 0x23, 0x27, 0x86, 0x3d, 0x81, 0x2f, 0xfb, 0xbd,
  0x4a, 0x81, 0xdf, 0x3d, 0x65, 0x3e, 0x86, 0xbd, 0x22, 0x2f, 0x4e, 0xbd,
  0x86, 0x94, 0xee, 0xbd, 0x95, 0x6b, 0xb7, 0xbd, 0x52, 0x86, 0xbe, 0x3d,
  0x11, 0x21, 0xf1, 0xbd, 0xd6, 0x3a, 0x9d, 0xbd, 0x64, 0x5e, 0xf0, 0x3d,
  0x4d, 0x79, 0xd6, 0xbd, 0x09, 0x07, 0xd2, 0xbd, 0x71, 0x8b, 0xd0, 0x3d,
  0x6b, 0x84, 0x89, 0xbd, 0xc8, 0xbe, 0xee, 0x3d, 0x33, 0xbe, 0xb0, 0xbc,
  0xfc, 0xa4, 0xa0, 0xbc, 0xb3, 0x19, 0xf5, 0xbc, 0xe6, 0xad, 0xcb, 0x3d,
  0x61, 0x6a, 0x89, 0xbd, 0xc8, 0xf6, 0xe9, 0xbd, 0x14, 0x11, 0xda, 0x3d,
  0x05, 0xc0, 0x15, 0x3d, 0x99, 0x62, 0x32, 0xbc, 0xe0, 0x99, 0x10, 0xbd,
  0x94, 0x40, 0x2b, 0x3d, 0x44, 0x2d, 0x28, 0x3d, 0x69, 0x64, 0x8f, 0x3d,
  0x8b, 0x42, 0x8b, 0x3d, 0x6f, 0xcf, 0xea, 0x3d, 0x64, 0x7b, 0xea, 0x3d,
  0x1e, 0xf8, 0x23, 0x3d, 0x96, 0x2b, 0x2f, 0x3d, 0xcc, 0x6c, 0xe1, 0x3d,
  0x95, 0x02, 0xa4, 0x3d, 0x9f, 0x45, 0xd8, 0xbd, 0x17, 0x4c, 0x8c, 0xbd,
  0x5a, 0x52, 0x6a, 0x3c, 0x07, 0xd6, 0xe0, 0x3d, 0x74, 0xad, 0x99, 0x3d,
  0xa8, 0xb8, 0x86, 0x3c, 0xc2, 0xf7, 0xc1, 0x3c, 0xce, 0xe9, 0x0b, 0xbd,
  0x18, 0x5c, 0x22, 0xbd, 0x20, 0x3a, 0x8c, 0x3d, 0x4c, 0xed, 0xff, 0x3d,
  0x82, 0xdc, 0x9e, 0xbc, 0xa4, 0x20, 0xf2, 0x3b, 0x14, 0x22, 0xa0, 0xbd,
  0xbd, 0xb1, 0x93, 0xbd, 0x8c, 0x80, 0xbe, 0x3d, 0x6a, 0xe8, 0x9b, 0xbd,
  0xcf, 0x20, 0xe7, 0x3d, 0xae, 0x09, 0x37, 0xbc, 0x49, 0xb7, 0xc8, 0x3d,
  0x01, 0x0b, 0x49, 0xbd, 0xfd, 0x7c, 0x02, 0x3d, 0xcb, 0x84, 0xbd, 0x3d,
  0xf0, 0x7d, 0x1f, 0xbd, 0x6a, 0xd8, 0xb6, 0xbc, 0x7f, 0xab, 0x11, 0xbd,
  0x5c, 0x50, 0x76, 0xbd, 0x03, 0x48, 0x85, 0xbd, 0xaa, 0x1d, 0xf4, 0xbd,
  0xc8, 0xb4, 0xf2, 0x3c, 0x4e, 0x19, 0xbf, 0x3d, 0x7b, 0x5e, 0xd2, 0x3d,
  0xae, 0x2c, 0xa2, 0x3d, 0xcb, 0x49, 0x4a, 0x3d, 0xf0, 0xa9, 0x3d, 0x3c,
  0x48, 0x9d, 0xd8, 0x3c, 0xb5, 0xba, 0x48, 0x3d, 0x7a, 0x7e, 0xa5, 0x3d,
  0xa3, 0x61, 0xcf, 0xbc, 0x10, 0x37, 0xb3, 0xbd, 0x7d, 0x01, 0xde, 0x3d,
  0xfa, 0x65, 0xd8, 0x3d, 0x60, 0xdf, 0x5f, 0xbd, 0x5a, 0x22, 0xdf, 0xbd,
  0xd8, 0x6d, 0x7d, 0x3d, 0x2d, 0xa8, 0xed, 0x3d, 0x5a, 0x61, 0x87, 0xbd,
  0x00, 0x6d, 0xd0, 0xbd, 0x82, 0x33, 0x00, 0x3c, 0x4e, 0xd1, 0xc9, 0x3d,
  0x27, 0x46, 0x93, 0x3d, 0x88, 0xf5, 0xe8, 0xbc, 0x30, 0x6e, 0x04, 0xbe,
  0x5c, 0xa2, 0xc9, 0xbd, 0x56, 0x41, 0x0a, 0xbd, 0x83, 0x07, 0xf0, 0xbd,
  0x50, 0x2b, 0x9b, 0x3d, 0x3d, 0xba, 0x17, 0xbb, 0xaa, 0x1d, 0x00, 0x3e,
  0x8c, 0xcc, 0x6e, 0x3d, 0xf7, 0x27, 0x88, 0xbd, 0x14, 0x74, 0xc3, 0x3d,
  0x8e, 0xea, 0x12, 0xbd, 0x61, 0x98, 0x94, 0xbd, 0x3e, 0xab, 0x27, 0xbb,
  0x24, 0x38, 0x30, 0xbc, 0x6b, 0x79, 0xd3, 0x3d, 0xd1, 0x34, 0x13, 0x3d,
  0xf4, 0xaa, 0x8a, 0xba, 0x46, 0xba, 0x06, 0xbd, 0xfe, 0x21, 0xbc, 0x3d,
  0x71, 0xca, 0x77, 0xbd, 0xef, 0x15, 0x83, 0xbd, 0x42, 0xb1, 0xd3, 0xbd,
  0xd2, 0x98, 0x8c, 0x3b, 0x70, 0x85, 0x88, 0xbd, 0x82, 0x47, 0xcc, 0xbc,
  0xd6, 0x9b, 0xd6, 0x3d, 0x85, 0x65, 0xa8, 0xbd, 0x3f, 0x63, 0xb3, 0x3d,
  0x23, 0x32, 0x81, 0xbd, 0x3c, 0xd4, 0x9f, 0x3d, 0xca, 0xb1, 0xc0, 0x3d,
  0x0b, 0xac, 0x0d, 0xbd, 0xca, 0x2c, 0xc5, 0xbd, 0x7c, 0x17, 0x9b, 0xbd,
  0x71, 0x56, 0xed, 0xbd, 0x81, 0x23, 0x9e, 0x3d, 0x71, 0x1e, 0xf4, 0x3d,
  0xb4, 0x5b, 0x81, 0xbd, 0xad, 0xe2, 0x65, 0xbd, 0x41, 0x61, 0x71, 0xbd,
  0xa1, 0x28, 0xd9, 0xbd, 0xe2, 0x6b, 0x0e, 0x3d, 0x96, 0xcc, 0x59, 0x3d,
  0x85, 0x14, 0x4a, 0x3d, 0x82, 0x93, 0xae, 0x3c, 0x4d, 0x99, 0x6c, 0xbc,
  0xe6, 0x6e, 0x25, 0xbd, 0xa3, 0xcb, 0x96, 0xbd, 0x1c, 0x46, 0x04, 0xbe,
  0x4f, 0x6c, 0x4c, 0x3d, 0x75, 0x2c, 0x05, 0xbe, 0xdf, 0xd0, 0x74, 0xbd,
  0x26, 0xa8, 0xef, 0xbb, 0xd9, 0x5a, 0xca, 0xbd, 0x61, 0xec, 0x75, 0x3c,
  0xe3, 0xc1, 0xf5, 0x3d, 0x50, 0x4c, 0x00, 0xbe, 0x7c, 0x77, 0x55, 0xbd,
  0x35, 0x5f, 0x09, 0x3d, 0xd8, 0x9f, 0x99, 0xbd, 0xdb, 0xab, 0xf8, 0xbd,
  0x0d, 0xda, 0xce, 0xbc, 0xb8, 0x13, 0x92, 0x39, 0xc2, 0xb8, 0xf4, 0xbd,
  0xf2, 0xe8, 0xfb, 0x3d, 0x1e, 0xee, 0x02, 0xbe, 0xde, 0x49, 0x97, 0xbd,
  0x31, 0x53, 0xbc, 0x3d, 0x05, 0x77, 0x81, 0xbd, 0x8d, 0x3f, 0xe2, 0x3d,
  0xd9, 0xcf, 0x60, 0xbd, 0x00, 0xaa, 0x08, 0xbc, 0xf7, 0x21, 0x5c, 0x3d,
  0x50, 0xbd, 0xd2, 0x3c, 0x38, 0x32, 0xc2, 0xba, 0xce, 0x6a, 0x19, 0x3c,
  0x07, 0xb8, 0xe8, 0x3d, 0xee, 0x94, 0xe1, 0xbd, 0x5a, 0x2c, 0x03, 0xbe,
  0xe6, 0x82, 0xa0, 0x3d, 0xb4, 0x0c, 0x1e, 0x3d, 0x2c, 0x03, 0x48, 0xbc,
  0x65, 0x55, 0xcc, 0xbd, 0x98, 0xeb, 0xd7, 0xbc, 0x45, 0x6f, 0xc8, 0x3d,
  0x16, 0x58, 0x06, 0xbe, 0xb1, 0x61, 0x8a, 0x3d, 0xb1, 0xf4, 0xfc, 0xbd,
  0xb9, 0x44, 0x5e, 0x3d, 0xc3, 0x6b, 0x59, 0xbd, 0xd0, 0xf4, 0xc2, 0x3d,
  0x1e, 0x0a, 0xee, 0x3c, 0x15, 0x5c, 0xa1, 0xbb, 0xf9, 0xd4, 0x05, 0x3d,
  0xb9, 0x27, 0xfb, 0x3c, 0x35, 0xd4, 0x0e, 0x3b, 0x66, 0xe6, 0xfc, 0x3d,
  0xf3, 0x53, 0x95, 0xbc, 0xb8, 0x95, 0x44, 0x3d, 0x63, 0xec, 0x8c, 0xbc,
  0x48, 0x84, 0x12, 0xbd, 0xbf, 0x8c, 0x9f, 0x3d, 0xc5, 0x2b, 0xb5, 0x3d,
  0xfd, 0x2e, 0x2c, 0xbd, 0xda, 0x8e, 0x62, 0x3d, 0xd6, 0x5d, 0xd1, 0x3d,
  0x6e, 0x63, 0x4c, 0x3d, 0xf8, 0xf0, 0xed, 0xbb, 0x86, 0x31, 0xaa, 0xbd,
  0x76, 0x0b, 0x07, 0xbe, 0xd5, 0x56, 0xf0, 0x3d, 0xff, 0x87, 0x97, 0x3c,
  0x85, 0xf7, 0xd3, 0x3c, 0x33, 0xf0, 0x3f, 0x3d, 0x9e, 0x57, 0xce, 0x3d,
  0x31, 0xc6, 0x00, 0xbe, 0x66, 0x78, 0x07, 0xbd, 0xa8, 0x43, 0x82, 0xbd,
  0xb2, 0xbe, 0x03, 0xbe, 0x4e, 0x6c, 0xe1, 0x3d, 0x0a, 0xb6, 0x80, 0xbd,
  0x5f, 0x30, 0x84, 0x3d, 0x7f, 0xea, 0x31, 0x3d, 0x7d, 0x48, 0xa8, 0xbc,
  0xc7, 0xa7, 0xdf, 0xbd, 0x3d, 0x42, 0xdc, 0xbd, 0x50, 0x40, 0x2a, 0x3d,
  0x2f, 0xa2, 0xe5, 0xbd, 0xed, 0x2a, 0xa2, 0x3c, 0x48, 0x79, 0xb8, 0x3d,
  0x40, 0xf0, 0xa3, 0x3d, 0x08, 0xcd, 0xfd, 0xbd, 0xfe, 0x27, 0xc2, 0x3d,
  0x98, 0x15, 0xda, 0xbd, 0x22, 0x3b, 0x3f, 0xbd, 0x6c, 0xb3, 0xf7, 0x3d,
  0x28, 0x71, 0x92, 0xbc, 0x10, 0xf8, 0xe5, 0x3b, 0x1c, 0xce, 0xcc, 0xbc,
  0x8e, 0xc7, 0xb4, 0xbd, 0x7e, 0x74, 0xcd, 0xbd, 0xb3, 0xbd, 0x9c, 0x3d,
  0xc7, 0x3f, 0x64, 0xbd, 0x5c, 0x2f, 0x78, 0xbd, 0xfd, 0x03, 0x8e, 0x3d,
  0xea, 0x97, 0x82, 0xbd, 0xcc, 0x3e, 0xef, 0xbd, 0xfc, 0x91, 0xf5, 0xbc,
  0xd9, 0x57, 0xd4, 0xbd, 0x04, 0xcf, 0x61, 0xbc, 0x3e, 0x0d, 0x4e, 0x3d,
  0x71, 0x58, 0xed, 0x3d, 0xeb, 0x79, 0x33, 0x3d, 0x80, 0x99, 0xc7, 0x3d,
  0x5c, 0xcb, 0x47, 0x3d, 0x24, 0xcf, 0x62, 0x3d, 0x90, 0x85, 0x4b, 0xbd,
  0xd1, 0x60, 0xad, 0x3d, 0xaf, 0x74, 0x1b, 0xbd, 0xf0, 0x83, 0x6a, 0x3a,
  0x86, 0xe4, 0xa7, 0x3c, 0x7b, 0xb7, 0xfd, 0xbd, 0xa1, 0x52, 0x84, 0xbd,
  0x11, 0x59, 0x0c, 0xbd, 0xd5, 0x10, 0xc2, 0xbc, 0xe6, 0x5f, 0xf6, 0xbd,
  0xf1, 0x6d, 0x83, 0x3d, 0x46, 0x7f, 0xdb, 0x3c, 0x4b, 0x2e, 0xbc, 0x3d,
  0x1e, 0xd0, 0xfc, 0x3d, 0xce, 0x54, 0x54, 0xbc, 0xc3, 0xde, 0x96, 0x3d,
  0x24, 0xf8, 0x78, 0xbd, 0x2a, 0x3e, 0xc4, 0x3d, 0x96, 0x2c, 0x3a, 0x3d,
  0xaa, 0x22, 0x87, 0x3d, 0x59, 0x94, 0xda, 0x3d, 0xd1, 0xeb, 0x04, 0xbe,
  0xc7, 0x2b, 0xdd, 0xbd, 0x4b, 0x19, 0x58, 0x3d, 0x7a, 0x9e, 0xea, 0x3d,
  0x9e, 0x87, 0xa2, 0xbd, 0xf0, 0x74, 0xf9, 0x3c, 0x48, 0x2b, 0xef, 0x3c,
  0x73, 0x90, 0xf0, 0xbd, 0x55, 0x84, 0x58, 0xbd, 0xdf, 0x14, 0x01, 0xbd,
  0x80, 0xe2, 0x7b, 0xbc, 0x9c, 0xca, 0xe1, 0xbd, 0xba, 0xd8, 0x42, 0x3d,
  0x44, 0x40, 0xf7, 0x3d, 0xa3, 0xb5, 0xbc, 0x3c, 0x94, 0x5c, 0x41, 0xbd,
  0x0c, 0xe8, 0xa3, 0x3c, 0x4c, 0x0a, 0x59, 0xbc, 0x6e, 0x0c, 0xc7, 0xbc,
  0x1f, 0x78, 0xac, 0x3c, 0x05, 0xab, 0x6f, 0x3d, 0xcb, 0x31, 0xf6, 0xbd,
  0x44, 0x0b, 0xdd, 0xbd, 0x08, 0x62, 0x95, 0xbd, 0x3c, 0xfb, 0x3c, 0xbd,
  0x96, 0x04, 0xa0, 0xbc, 0x80, 0xba, 0xf7, 0x3d, 0xe4, 0x63, 0x83, 0xbd,
  0xad, 0xa3, 0x36, 0x3d, 0x04, 0x92, 0xa0, 0x3a, 0x8e, 0xc4, 0xbd, 0xbd,
  0x27, 0xb1, 0x5a, 0x3d, 0xfa, 0xba, 0x80, 0xbd, 0x21, 0x11, 0x74, 0x3b,
  0xbe, 0xe6, 0x8c, 0xbd, 0xcf, 0x92, 0x1a, 0x3d, 0x7c, 0xa5, 0xbc, 0x3d,
  0x73, 0xc8, 0x2d, 0x3d, 0xa4, 0xe8, 0x8a, 0xbd, 0x97, 0x4e, 0xdf, 0xbd,
  0x67, 0xe1, 0xda, 0xbd, 0xf0, 0x16, 0x0a, 0x3c, 0x12, 0xf0, 0x78, 0x3d,
  0xcc, 0x6a, 0x83, 0x3c, 0xb0, 0xf4, 0xae, 0x3d, 0x68, 0x3a, 0xe3, 0x3a,
  0xff, 0xe4, 0x6c, 0xbd, 0xa7, 0x71, 0x95, 0xbd, 0xd3, 0x24, 0xaa, 0xbd,
  0xb0, 0x4b, 0x18, 0x3d, 0x58, 0xd9, 0xbd, 0xbb, 0x3d, 0x65, 0x25, 0x3d,
  0x31, 0x4c, 0xbd, 0x3d, 0x28, 0x29, 0x86, 0xbd, 0xc1, 0xa0, 0x8d, 0x3d,
  0xab, 0x2c, 0xd8, 0xbd, 0x9f, 0xa9, 0x46, 0x3c, 0x96, 0x33, 0xe1, 0x3d,
  0xe4, 0xf0, 0xd5, 0xbd, 0x28, 0xaf, 0xf0, 0xbd, 0x81, 0xe8, 0x7c, 0x3d,
  0x2e, 0x04, 0x9f, 0xbd, 0x3d, 0xa8, 0x37, 0x3d, 0xd8, 0x9c, 0xc2, 0x3d,
  0xed, 0x69, 0xc8, 0x3d, 0xb1, 0xba, 0x00, 0x3c, 0x5e, 0x63, 0x4c, 0x3c,
  0xa3, 0x3d, 0x91, 0x3d, 0xf6, 0xb3, 0xc1, 0x3d, 0xa6, 0x27, 0x8f, 0xbd,
  0x07, 0x0f, 0xc8, 0xbd, 0x7d, 0x0e, 0xa2, 0xbd, 0x86, 0x76, 0x91, 0xbd,
  0xe0, 0xf6, 0x87, 0x3d, 0xc6, 0xe7, 0x77, 0x3d, 0x9a, 0x7f, 0xcd, 0xbd,
  0x78, 0x5c, 0xba, 0xbd, 0xab, 0xba, 0x77, 0xbd, 0x9c, 0xa6, 0x39, 0x3d,
  0x87, 0x2d, 0x6b, 0xbd, 0xaf, 0x87, 0x70, 0xbd, 0xdd, 0xdd, 0x60, 0xbd,
  0xdc, 0x9e, 0xdb, 0xbd, 0x7c, 0x00, 0x25, 0x3a, 0x7a, 0x71, 0xab, 0xbb,
  0xad, 0xfc, 0xc2, 0x3b, 0xa5, 0x63, 0x9d, 0xbd, 0x39, 0x77, 0x00, 0x3d,
  0xc9, 0x9e, 0xb6, 0x3d, 0x9a, 0x4d, 0xff, 0xbd, 0xba, 0x96, 0x76, 0xbc,
  0xf1, 0x53, 0xbe, 0xbc, 0xe1, 0xf5, 0x22, 0xbd, 0xc0, 0x54, 0x81, 0x3b,
  0x87, 0xa1, 0x60, 0x3d, 0x38, 0x0d, 0x0d, 0x3d, 0x28, 0xc4, 0x17, 0xbd,
  0x2c, 0xe4, 0x5b, 0xbc, 0xb6, 0x83, 0x77, 0xbc, 0x1f, 0xdf, 0x28, 0x3d,
  0xdc, 0x49, 0xc8, 0xbb, 0x3c, 0xc8, 0x09, 0xbd, 0xb8, 0xa1, 0xda, 0xbd,
  0x1f, 0xdf, 0x46, 0x3d, 0x54, 0x14, 0x06, 0xba, 0x94, 0x8b, 0xf0, 0x3d,
  0xa0, 0x6a, 0x6f, 0xbd, 0xf9, 0x49, 0x2d, 0xbd, 0xbe, 0x0d, 0x22, 0x3d,
  0x87, 0x8f, 0xaf, 0x3d, 0x68, 0xd2, 0x87, 0x3b, 0xc7, 0x33, 0xf2, 0x3d,
  0x5b, 0x16, 0x5f, 0xbd, 0x47, 0x15, 0x5a, 0xbd, 0x4f, 0xc6, 0xf9, 0xbc,
  0x02, 0x8c, 0x7c, 0x3c, 0xcf, 0xad, 0xe7, 0xbd, 0xa2, 0x53, 0xeb, 0xbd,
  0xd5, 0x32, 0x8a, 0x3d, 0x2c, 0x71, 0x21, 0x3d, 0x4e, 0xe2, 0xb1, 0xbd,
  0xa4, 0x03, 0xdb, 0x3d, 0x06, 0x78, 0xac, 0xbc, 0x9a, 0x4f, 0x54, 0xbd,
  0x90, 0x71, 0xc0, 0xbd, 0xee, 0x9b, 0xf2, 0x3d, 0xc1, 0xab, 0x8e, 0xbc,
  0xcf, 0x86, 0x99, 0xbd, 0xa1, 0x99, 0xc3, 0xbd, 0x38, 0xe0, 0x9a, 0xbd,
  0xe0, 0xcd, 0xf4, 0x3d, 0x6d, 0x11, 0x8b, 0x3d, 0x7b, 0x60, 0xc1, 0xbb,
  0xcd, 0xd4, 0x57, 0xbd, 0x3d, 0x8c, 0xaa, 0x3d, 0x93, 0x60, 0x27, 0x3c,
  0xa7, 0xd7, 0xf0, 0x3d, 0x91, 0x37, 0x1a, 0x3c, 0x67, 0x59, 0xaa, 0x3d,
  0x2e, 0x70, 0x64, 0x3c, 0x0a, 0x5e, 0x75, 0xbd, 0xde, 0x79, 0xc4, 0x3d,
  0x8b, 0x1f, 0xe5, 0x3d, 0xf4, 0xa2, 0xec, 0xbd, 0x46, 0x6f, 0xc0, 0xbc,
  0x2a, 0x72, 0xdd, 0xbc, 0x35, 0x42, 0x7b, 0xbd, 0x9e, 0x79, 0x19, 0xbc,
  0x7c, 0x2d, 0xcd, 0x3b, 0x5c, 0x60, 0x4f, 0x3d, 0x4c, 0xe7, 0xfd, 0xbd,
  0xf9, 0x69, 0xa4, 0x3d, 0x77, 0x6b, 0x2c, 0xbc, 0x49, 0x89, 0x42, 0x3d,
  0x34, 0x44, 0x9b, 0xbd, 0xcb, 0xc7, 0x03, 0xbc, 0xd0, 0xa7, 0x3b, 0x3d,
  0xfa, 0xfe, 0xff, 0xff, 0x04, 0x00, 0x00, 0x00, 0x10, 0x00, 0x00, 0x00,
  0x00, 0x00, 0x00, 0x00, 0x43, 0x1a, 0x02, 0xbd, 0x38, 0x32, 0x4f, 0xbb,
  0x73, 0xf1, 0x4e, 0xbb, 0x16, 0xff, 0xff, 0xff, 0x04, 0x00, 0x00, 0x00,
  0x04, 0x00, 0x00, 0x00, 0x2b, 0xc4, 0x00, 0xbd, 0x26, 0xff, 0xff, 0xff,
  0x04, 0x00, 0x00, 0x00, 0x08, 0x00, 0x00, 0x00, 0x96, 0x62, 0xa4, 0x3c,
  0x96, 0x62, 0xa4, 0xbc, 0x3a, 0xff, 0xff, 0xff, 0x04, 0x00, 0x00, 0x00,
  0x10, 0x00, 0x00, 0x00, 0x88, 0x4f, 0x7f, 0x3e, 0xf2, 0x77, 0x0d, 0x3f,
  0x4b, 0xf0, 0x2d, 0x3e, 0x2a, 0x33, 0xe2, 0xbd, 0x56, 0xff, 0xff, 0xff,
  0x04, 0x00, 0x00, 0x00, 0x08, 0x00, 0x00, 0x00, 0xdb, 0x2b, 0xc3, 0xbf,
  0x36, 0xee, 0x16, 0x3f, 0xc4, 0xfa, 0xff, 0xff, 0xc8, 0xfa, 0xff, 0xff,
  0x0f, 0x00, 0x00, 0x00, 0x4d, 0x4c, 0x49, 0x52, 0x20, 0x43, 0x6f, 0x6e,
  0x76, 0x65, 0x72, 0x74, 0x65, 0x64, 0x2e, 0x00, 0x01, 0x00, 0x00, 0x00,
  0x14, 0x00, 0x00, 0x00, 0x00, 0x00, 0x0e, 0x00, 0x18, 0x00, 0x14, 0x00,
  0x10, 0x00, 0x0c, 0x00, 0x08, 0x00, 0x04, 0x00, 0x0e, 0x00, 0x00, 0x00,
  0x14, 0x00, 0x00, 0x00, 0x1c, 0x00, 0x00, 0x00, 0x24, 0x01, 0x00, 0x00,
  0x28, 0x01, 0x00, 0x00, 0x2c, 0x01, 0x00, 0x00, 0x04, 0x00, 0x00, 0x00,
  0x6d, 0x61, 0x69, 0x6e, 0x00, 0x00, 0x00, 0x00, 0x04, 0x00, 0x00, 0x00,
  0xcc, 0x00, 0x00, 0x00, 0x84, 0x00, 0x00, 0x00, 0x50, 0x00, 0x00, 0x00,
  0x14, 0x00, 0x00, 0x00, 0x00, 0x00, 0x0e, 0x00, 0x1a, 0x00, 0x14, 0x00,
  0x10, 0x00, 0x0c, 0x00, 0x0b, 0x00, 0x04, 0x00, 0x0e, 0x00, 0x00, 0x00,
  0x1c, 0x00, 0x00, 0x00, 0x00, 0x00, 0x00, 0x09, 0x1c, 0x00, 0x00, 0x00,
  0x20, 0x00, 0x00, 0x00, 0x01, 0x00, 0x00, 0x00, 0x00, 0x00, 0x06, 0x00,
  0x08, 0x00, 0x04, 0x00, 0x06, 0x00, 0x00, 0x00, 0x00, 0x00, 0x80, 0x3f,
  0x01, 0x00, 0x00, 0x00, 0x0a, 0x00, 0x00, 0x00, 0x01, 0x00, 0x00, 0x00,
  0x09, 0x00, 0x00, 0x00, 0x9a, 0xff, 0xff, 0xff, 0x10, 0x00, 0x00, 0x00,
  0x00, 0x00, 0x00, 0x08, 0x0c, 0x00, 0x00, 0x00, 0x10, 0x00, 0x00, 0x00,
  0x8c, 0xfb, 0xff, 0xff, 0x01, 0x00, 0x00, 0x00, 0x09, 0x00, 0x00, 0x00,
  0x03, 0x00, 0x00, 0x00, 0x08, 0x00, 0x00, 0x00, 0x01, 0x00, 0x00, 0x00,
  0x03, 0x00, 0x00, 0x00, 0xca, 0xff, 0xff, 0xff, 0x10, 0x00, 0x00, 0x00,
  0x00, 0x00, 0x00, 0x08, 0x10, 0x00, 0x00, 0x00, 0x14, 0x00, 0x00, 0x00,
  0xba, 0xff, 0xff, 0xff, 0x00, 0x00, 0x00, 0x01, 0x01, 0x00, 0x00, 0x00,
  0x08, 0x00, 0x00, 0x00, 0x03, 0x00, 0x00, 0x00, 0x07, 0x00, 0x00, 0x00,
  0x02, 0x00, 0x00, 0x00, 0x04, 0x00, 0x00, 0x00, 0x00, 0x00, 0x0e, 0x00,
  0x16, 0x00, 0x00, 0x00, 0x10, 0x00, 0x0c, 0x00, 0x0b, 0x00, 0x04, 0x00,
  0x0e, 0x00, 0x00, 0x00, 0x18, 0x00, 0x00, 0x00, 0x00, 0x00, 0x00, 0x08,
  0x18, 0x00, 0x00, 0x00, 0x1c, 0x00, 0x00, 0x00, 0x00, 0x00, 0x06, 0x00,
  0x08, 0x00, 0x07, 0x00, 0x06, 0x00, 0x00, 0x00, 0x00, 0x00, 0x00, 0x01,
  0x01, 0x00, 0x00, 0x00, 0x07, 0x00, 0x00, 0x00, 0x03, 0x00, 0x00, 0x00,
  0x00, 0x00, 0x00, 0x00, 0x06, 0x00, 0x00, 0x00, 0x05, 0x00, 0x00, 0x00,
  0x01, 0x00, 0x00, 0x00, 0x0a, 0x00, 0x00, 0x00, 0x01, 0x00, 0x00, 0x00,
  0x00, 0x00, 0x00, 0x00, 0x0b, 0x00, 0x00, 0x00, 0xac, 0x03, 0x00, 0x00,
  0x54, 0x03, 0x00, 0x00, 0x14, 0x03, 0x00, 0x00, 0xd8, 0x02, 0x00, 0x00,
  0x9c, 0x02, 0x00, 0x00, 0x3c, 0x02, 0x00, 0x00, 0xe8, 0x01, 0x00, 0x00,
  0x54, 0x01, 0x00, 0x00, 0xc4, 0x00, 0x00, 0x00, 0x50, 0x00, 0x00, 0x00,
  0x04, 0x00, 0x00, 0x00, 0x96, 0xfc, 0xff, 0xff, 0x00, 0x00, 0x00, 0x01,
  0x10, 0x00, 0x00, 0x00, 0x10, 0x00, 0x00, 0x00, 0x0b, 0x00, 0x00, 0x00,
  0x28, 0x00, 0x00, 0x00, 0x80, 0xfc, 0xff, 0xff, 0x1b, 0x00, 0x00, 0x00,
  0x53, 0x74, 0x61, 0x74, 0x65, 0x66, 0x75, 0x6c, 0x50, 0x61, 0x72, 0x74,
  0x69, 0x74, 0x69, 0x6f, 0x6e, 0x65, 0x64, 0x43, 0x61, 0x6c, 0x6c, 0x5f,
  0x31, 0x3a, 0x30, 0x00, 0x02, 0x00, 0x00, 0x00, 0x02, 0x00, 0x00, 0x00,
  0x02, 0x00, 0x00, 0x00, 0xde, 0xfc, 0xff, 0xff, 0x00, 0x00, 0x00, 0x01,
  0x10, 0x00, 0x00, 0x00, 0x10, 0x00, 0x00, 0x00, 0x0a, 0x00, 0x00, 0x00,
  0x50, 0x00, 0x00, 0x00, 0xc8, 0xfc, 0xff, 0xff, 0x42, 0x00, 0x00, 0x00,
  0x73, 0x65, 0x71, 0x75, 0x65, 0x6e, 0x74, 0x69, 0x61, 0x6c, 0x5f, 0x35,
  0x5f, 0x31, 0x2f, 0x64, 0x65, 0x6e, 0x73, 0x65, 0x5f, 0x31, 0x36, 0x5f,
  0x31, 0x2f, 0x4d, 0x61, 0x74, 0x4d, 0x75, 0x6c, 0x3b, 0x73, 0x65, 0x71,
  0x75, 0x65, 0x6e, 0x74, 0x69, 0x61, 0x6c, 0x5f, 0x35, 0x5f, 0x31, 0x2f,
  0x64, 0x65, 0x6e, 0x73, 0x65, 0x5f, 0x31, 0x36, 0x5f, 0x31, 0x2f, 0x42,
  0x69, 0x61, 0x73, 0x41, 0x64, 0x64, 0x00, 0x00, 0x02, 0x00, 0x00, 0x00,
  0x02, 0x00, 0x00, 0x00, 0x02, 0x00, 0x00, 0x00, 0x4e, 0xfd, 0xff, 0xff,
  0x00, 0x00, 0x00, 0x01, 0x10, 0x00, 0x00, 0x00, 0x10, 0x00, 0x00, 0x00,
  0x09, 0x00, 0x00, 0x00, 0x6c, 0x00, 0x00, 0x00, 0x38, 0xfd, 0xff, 0xff,
  0x5d, 0x00, 0x00, 0x00, 0x73, 0x65, 0x71, 0x75, 0x65, 0x6e, 0x74, 0x69,
  0x61, 0x6c, 0x5f, 0x35, 0x5f, 0x31, 0x2f, 0x64, 0x65, 0x6e, 0x73, 0x65,
  0x5f, 0x31, 0x35, 0x5f, 0x31, 0x2f, 0x4d, 0x61, 0x74, 0x4d, 0x75, 0x6c,
  0x3b, 0x73, 0x65, 0x71, 0x75, 0x65, 0x6e, 0x74, 0x69, 0x61, 0x6c, 0x5f,
  0x35, 0x5f, 0x31, 0x2f, 0x64, 0x65, 0x6e, 0x73, 0x65, 0x5f, 0x31, 0x35,
  0x5f, 0x31, 0x2f, 0x52, 0x65, 0x6c, 0x75, 0x3b, 0x73, 0x65, 0x71, 0x75,
  0x65, 0x6e, 0x74, 0x69, 0x61, 0x6c, 0x5f, 0x35, 0x5f, 0x31, 0x2f, 0x64,
  0x65, 0x6e, 0x73, 0x65, 0x5f, 0x31, 0x35, 0x5f, 0x31, 0x2f, 0x41, 0x64,
  0x64, 0x00, 0x00, 0x00, 0x02, 0x00, 0x00, 0x00, 0x02, 0x00, 0x00, 0x00,
  0x01, 0x00, 0x00, 0x00, 0xda, 0xfd, 0xff, 0xff, 0x00, 0x00, 0x00, 0x01,
  0x10, 0x00, 0x00, 0x00, 0x10, 0x00, 0x00, 0x00, 0x08, 0x00, 0x00, 0x00,
  0x70, 0x00, 0x00, 0x00, 0xc4, 0xfd, 0xff, 0xff, 0x61, 0x00, 0x00, 0x00,
  0x73, 0x65, 0x71, 0x75, 0x65, 0x6e, 0x74, 0x69, 0x61, 0x6c, 0x5f, 0x35,
  0x5f, 0x31, 0x2f, 0x64, 0x65, 0x6e, 0x73, 0x65, 0x5f, 0x31, 0x34, 0x5f,
  0x31, 0x2f, 0x4d, 0x61, 0x74, 0x4d, 0x75, 0x6c, 0x3b, 0x73, 0x65, 0x71,
  0x75, 0x65, 0x6e, 0x74, 0x69, 0x61, 0x6c, 0x5f, 0x35, 0x5f, 0x31, 0x2f,
  0x64, 0x65, 0x6e, 0x73, 0x65, 0x5f, 0x31, 0x34, 0x5f, 0x31, 0x2f, 0x52,
  0x65, 0x6c, 0x75, 0x3b, 0x73, 0x65, 0x71, 0x75, 0x65, 0x6e, 0x74, 0x69,
  0x61, 0x6c, 0x5f, 0x35, 0x5f, 0x31, 0x2f, 0x64, 0x65, 0x6e, 0x73, 0x65,
  0x5f, 0x31, 0x34, 0x5f, 0x31, 0x2f, 0x42, 0x69, 0x61, 0x73, 0x41, 0x64,
  0x64, 0x00, 0x00, 0x00, 0x02, 0x00, 0x00, 0x00, 0x02, 0x00, 0x00, 0x00,
  0x04, 0x00, 0x00, 0x00, 0x6a, 0xfe, 0xff, 0xff, 0x00, 0x00, 0x00, 0x01,
  0x10, 0x00, 0x00, 0x00, 0x10, 0x00, 0x00, 0x00, 0x07, 0x00, 0x00, 0x00,
  0x30, 0x00, 0x00, 0x00, 0x54, 0xfe, 0xff, 0xff, 0x20, 0x00, 0x00, 0x00,
  0x73, 0x65, 0x71, 0x75, 0x65, 0x6e, 0x74, 0x69, 0x61, 0x6c, 0x5f, 0x35,
  0x5f, 0x31, 0x2f, 0x64, 0x65, 0x6e, 0x73, 0x65, 0x5f, 0x31, 0x34, 0x5f,
  0x31, 0x2f, 0x4d, 0x61, 0x74, 0x4d, 0x75, 0x6c, 0x00, 0x00, 0x00, 0x00,
  0x02, 0x00, 0x00, 0x00, 0x04, 0x00, 0x00, 0x00, 0x65, 0x01, 0x00, 0x00,
  0xba, 0xfe, 0xff, 0xff, 0x00, 0x00, 0x00, 0x01, 0x10, 0x00, 0x00, 0x00,
  0x10, 0x00, 0x00, 0x00, 0x06, 0x00, 0x00, 0x00, 0x40, 0x00, 0x00, 0x00,
  0xa4, 0xfe, 0xff, 0xff, 0x30, 0x00, 0x00, 0x00, 0x73, 0x65, 0x71, 0x75,
  0x65, 0x6e, 0x74, 0x69, 0x61, 0x6c, 0x5f, 0x35, 0x5f, 0x31, 0x2f, 0x64,
  0x65, 0x6e, 0x73, 0x65, 0x5f, 0x31, 0x34, 0x5f, 0x31, 0x2f, 0x42, 0x69,
  0x61, 0x73, 0x41, 0x64, 0x64, 0x2f, 0x52, 0x65, 0x61, 0x64, 0x56, 0x61,
  0x72, 0x69, 0x61, 0x62, 0x6c, 0x65, 0x4f, 0x70, 0x00, 0x00, 0x00, 0x00,
  0x01, 0x00, 0x00, 0x00, 0x04, 0x00, 0x00, 0x00, 0x16, 0xff, 0xff, 0xff,
  0x00, 0x00, 0x00, 0x01, 0x10, 0x00, 0x00, 0x00, 0x10, 0x00, 0x00, 0x00,
  0x05, 0x00, 0x00, 0x00, 0x1c, 0x00, 0x00, 0x00, 0x00, 0xff, 0xff, 0xff,
  0x0f, 0x00, 0x00, 0x00, 0x61, 0x72, 0x69, 0x74, 0x68, 0x2e, 0x63, 0x6f,
  0x6e, 0x73, 0x74, 0x61, 0x6e, 0x74, 0x33, 0x00, 0x01, 0x00, 0x00, 0x00,
  0x01, 0x00, 0x00, 0x00, 0x4e, 0xff, 0xff, 0xff, 0x00, 0x00, 0x00, 0x01,
  0x10, 0x00, 0x00, 0x00, 0x10, 0x00, 0x00, 0x00, 0x04, 0x00, 0x00, 0x00,
  0x1c, 0x00, 0x00, 0x00, 0x38, 0xff, 0xff, 0xff, 0x0f, 0x00, 0x00, 0x00,
  0x61, 0x72, 0x69, 0x74, 0x68, 0x2e, 0x63, 0x6f, 0x6e, 0x73, 0x74, 0x61,
  0x6e, 0x74, 0x32, 0x00, 0x01, 0x00, 0x00, 0x00, 0x02, 0x00, 0x00, 0x00,
  0x86, 0xff, 0xff, 0xff, 0x00, 0x00, 0x00, 0x01, 0x10, 0x00, 0x00, 0x00,
  0x10, 0x00, 0x00, 0x00, 0x03, 0x00, 0x00, 0x00, 0x1c, 0x00, 0x00, 0x00,
  0x70, 0xff, 0xff, 0xff, 0x0f, 0x00, 0x00, 0x00, 0x61, 0x72, 0x69, 0x74,
  0x68, 0x2e, 0x63, 0x6f, 0x6e, 0x73, 0x74, 0x61, 0x6e, 0x74, 0x31, 0x00,
  0x02, 0x00, 0x00, 0x00, 0x01, 0x00, 0x00, 0x00, 0x04, 0x00, 0x00, 0x00,
  0xc2, 0xff, 0xff, 0xff, 0x00, 0x00, 0x00, 0x01, 0x10, 0x00, 0x00, 0x00,
  0x10, 0x00, 0x00, 0x00, 0x02, 0x00, 0x00, 0x00, 0x1c, 0x00, 0x00, 0x00,
  0xac, 0xff, 0xff, 0xff, 0x0e, 0x00, 0x00, 0x00, 0x61, 0x72, 0x69, 0x74,
  0x68, 0x2e, 0x63, 0x6f, 0x6e, 0x73, 0x74, 0x61, 0x6e, 0x74, 0x00, 0x00,
  0x02, 0x00, 0x00, 0x00, 0x02, 0x00, 0x00, 0x00, 0x01, 0x00, 0x00, 0x00,
  0x00, 0x00, 0x16, 0x00, 0x18, 0x00, 0x14, 0x00, 0x00, 0x00, 0x10, 0x00,
  0x0c, 0x00, 0x08, 0x00, 0x00, 0x00, 0x00, 0x00, 0x00, 0x00, 0x07, 0x00,
  0x16, 0x00, 0x00, 0x00, 0x00, 0x00, 0x00, 0x01, 0x14, 0x00, 0x00, 0x00,
  0x14, 0x00, 0x00, 0x00, 0x01, 0x00, 0x00, 0x00, 0x34, 0x00, 0x00, 0x00,
  0x04, 0x00, 0x04, 0x00, 0x04, 0x00, 0x00, 0x00, 0x21, 0x00, 0x00, 0x00,
  0x73, 0x65, 0x72, 0x76, 0x69, 0x6e, 0x67, 0x5f, 0x64, 0x65, 0x66, 0x61,
  0x75, 0x6c, 0x74, 0x5f, 0x6b, 0x65, 0x72, 0x61, 0x73, 0x5f, 0x74, 0x65,
  0x6e, 0x73, 0x6f, 0x72, 0x5f, 0x31, 0x39, 0x3a, 0x30, 0x00, 0x00, 0x00,
  0x02, 0x00, 0x00, 0x00, 0x02, 0x00, 0x00, 0x00, 0x65, 0x01, 0x00, 0x00,
  0x02, 0x00, 0x00, 0x00, 0x20, 0x00, 0x00, 0x00, 0x04, 0x00, 0x00, 0x00,
  0xf4, 0xff, 0xff, 0xff, 0x19, 0x00, 0x00, 0x00, 0x00, 0x00, 0x00, 0x19,
  0x0c, 0x00, 0x0c, 0x00, 0x0b, 0x00, 0x00, 0x00, 0x00, 0x00, 0x04, 0x00,
  0x0c, 0x00, 0x00, 0x00, 0x09, 0x00, 0x00, 0x00, 0x00, 0x00, 0x00, 0x09
};
